int32_t weight[] = {
0xec01f935,
0x00000048,
0xfcfb0ddd,
0x000000f0,
0xf2e2efcc,
0x0000003b,
0xc0e1e5fb,
0x000000e4,
0x0327f432,
0x00000010,
0x26c7b9eb,
0x000000ea,
0x1554f2a5,
0x00000008,
0xdd4d0906,
0x000000c7,
0xcdce4afc,
0x000000e2,
0x4ae6ff2d,
0x00000067,
0x3b28f5f9,
0x0000004f,
0xfbed433b,
0x000000e6,
0x00eaf660,
0x000000fb,
0xf9f9ddd6,
0x000000cc,
0xf7cdd4dd,
0x000000e0,
0x344d270e,
0x00000061,
0x56f5fd18,
0x00000032,
0xc9bccbf7,
0x00000022,
0xc5e0bcee,
0x00000003,
0x0fac233f,
0x00000014,
0x8b9a182b,
0x0000009c,
0x31177f3a,
0x00000037,
0x474231e7,
0x0000002e,
0xd10ed2c5,
0x000000d8,
0x19f7c716,
0x00000009,
0xce4142ec,
0x0000001f,
0x0dcb5f29,
0x000000db,
0xc4e24c00,
0x000000c8,
0xe3cb3747,
0x000000fe,
0xe60afd0a,
0x00000011,
0xf1efed10,
0x000000d7,
0xadc7e000,
0x000000ce,
0xd2a6ddfc,
0x000000f0,
0xe6a30210,
0x000000f4,
0xdfc91518,
0x00000000,
0x241903fa,
0x00000011,
0x100327f8,
0x0000001b,
0x2101f4f7,
0x000000ba,
0xd117fbd4,
0x000000b2,
0xceebf9cc,
0x000000c8,
0xe2cbeaf7,
0x000000db,
0xe8e9ffd2,
0x0000001b,
0xfcec150c,
0x00000023,
0xd3e1d9fb,
0x0000001f,
0xfffb03c6,
0x00000011,
0xf2dffc13,
0x000000c1,
0x03decef8,
0x00000000,
0x17c9f115,
0x0000001e,
0xffc8f71d,
0x00000022,
0xf40e08eb,
0x00000016,
0x080b01d0,
0x00000017,
0x2918e4ef,
0x0000001a,
0xfdec0518,
0x00000027,
0xe6d9c2ee,
0x00000007,
0x210ce2ab,
0x000000f7,
0xff17eae8,
0x0000000e,
0x091bc0cf,
0x00000015,
0x2d1dd2de,
0x0000000c,
0x2a14f1bd,
0x00000011,
0x190c05b4,
0x00000010,
0xe0f2f904,
0x000000e6,
0xfeff0bf9,
0x00000000,
0x080802f7,
0x00000000,
0xe3e809f4,
0x00000003,
0x1100ee07,
0x000000fc,
0x0efff106,
0x000000fb,
0xfaf8bbce,
0x000000e3,
0x1003dfd8,
0x000000f3,
0xf703000a,
0x000000fa,
0x00f0ecec,
0x000000f4,
0x1200e5d9,
0x0000001e,
0x25212310,
0x0000002a,
0x040c10eb,
0x000000b2,
0xe7c3c6c9,
0x00000028,
0x26fcdc0e,
0x0000002c,
0xdfdcd5d4,
0x000000f6,
0x17322f06,
0x00000017,
0xff141d0e,
0x000000cc,
0xa18092b3,
0x000000de,
0x24f3c9e9,
0x00000026,
0x0e1c1713,
0x00000005,
0x09172c2c,
0x000000f6,
0xc100241c,
0x000000b5,
0x0ddcd603,
0x00000013,
0x2509f7f4,
0x00000008,
0x08fa03e5,
0x00000023,
0xfafafdf7,
0x000000f0,
0xa0a9e2fd,
0x000000ce,
0xadc8e9fb,
0x000000f9,
0xe7f50810,
0x00000001,
0x05180cee,
0x00000003,
0x241bff05,
0x00000029,
0x05ebebec,
0x00000007,
0xf5faf7db,
0x000000df,
0xd6e8dbe8,
0x000000df,
0x94a7e100,
0x000000b1,
0xfe1c1310,
0x000000e0,
0x0f0a0614,
0x000000f9,
0x0c231824,
0x0000000d,
0xf2f909e0,
0x00000004,
0xfbe6fc07,
0x00000025,
0xf8d2e2f8,
0x00000026,
0xddcad5f7,
0x000000bd,
0x0400f30f,
0x000000d6,
0x0a171618,
0x00000018,
0xfff9ed0c,
0x00000011,
0x2607ebf2,
0x0000003e,
0xf8c5aad3,
0x00000023,
0x0d271e04,
0x000000d8,
0x22f9fd08,
0x000000ff,
0xccf70a06,
0x000000fd,
0xc9dcfdec,
0x000000f3,
0x021e0dfa,
0x000000da,
0x271a0002,
0x00000020,
0x292e293c,
0x00000027,
0xcfe9f601,
0x00000018,
0xd4cbeae6,
0x000000da,
0xbddee3ed,
0x000000c9,
0xc4e1e706,
0x000000ee,
0xc81006e8,
0x000000f4,
0xf00ef6d9,
0x00000007,
0x0ffdf1f5,
0x000000e8,
0xf008f6e4,
0x000000d0,
0xcde810fc,
0x000000b2,
0xd4da0d01,
0x000000de,
0xf1f5f117,
0x0000001b,
0x0bdd0714,
0x00000006,
0x09ffee18,
0x00000023,
0x0cfeec0a,
0x0000003a,
0x3808f8e7,
0x00000021,
0xddccaef0,
0x000000e3,
0xeafcea03,
0x000000c7,
0xcbdd05fe,
0x000000d9,
0xe1c0f814,
0x00000013,
0x01f3f606,
0x00000010,
0xd3b5b1cd,
0x000000e2,
0xd4b9c1e7,
0x000000a5,
0xbdc2c5ca,
0x000000c2,
0xd9bcddf6,
0x0000000c,
0xeccf01f8,
0x00000015,
0xe2cf1717,
0x000000c7,
0xf0dd1415,
0x000000f0,
0xf1e316e6,
0x0000001b,
0x0805ffed,
0x000000ec,
0xd90701f9,
0x000000f8,
0x290113fa,
0x000000e6,
0x0f1d2dff,
0x000000fc,
0xdd0f2618,
0x000000ed,
0xdae6fb06,
0x0000000d,
0x26e6d7e7,
0x0000002b,
0xf5faf708,
0x000000f6,
0xf7f3ed02,
0x000000f8,
0xc4c9fa05,
0x000000eb,
0xf9e2edef,
0x00000002,
0x0a021408,
0x000000f6,
0xfe19f20b,
0x000000ef,
0xfe0e12fd,
0x00000011,
0x2404ea11,
0x00000017,
0x162d14e9,
0x000000c0,
0xc1d7fcfb,
0x000000f7,
0xf7eee5e2,
0x000000bd,
0xbecee9ce,
0x000000c9,
0x1208e8e2,
0x00000027,
0x272e1201,
0x00000009,
0xf60a04ed,
0x000000ec,
0x1c1005f1,
0x000000f8,
0xf3ef09fc,
0x000000d7,
0xfde109fc,
0x000000fd,
0x1a0bf7ed,
0x00000016,
0xed0a1e0f,
0x000000ec,
0x1f0c15fd,
0x00000014,
0xf1f808f7,
0x00000004,
0x1e25efdc,
0x00000023,
0x00fd1a28,
0x00000009,
0xf7eef514,
0x000000c6,
0x0a1cf906,
0x000000ef,
0xd9fa1416,
0x000000f6,
0xf2f3e70a,
0x000000f4,
0x0b11e5f1,
0x000000ed,
0xe3f1fc06,
0x000000ec,
0xecfff2e4,
0x000000ee,
0xfefbf4fc,
0x000000e5,
0xd1fd10fd,
0x000000de,
0xdce0ea07,
0x0000000c,
0x05dad6ea,
0x0000000c,
0x0401d4da,
0x00000007,
0x1505e4e8,
0x000000f4,
0xfc00fd0b,
0x000000f4,
0x09030c0e,
0x00000002,
0x0a202114,
0x000000f9,
0xfaeffe0d,
0x00000002,
0xe7e10e1c,
0x00000026,
0x09c8fb2e,
0x00000040,
0x3401d31e,
0x00000037,
0xf7e3dbc8,
0x00000002,
0xeaf4dcec,
0x000000d4,
0xebc6f203,
0x000000cb,
0xf3b4e4fb,
0x000000f5,
0xf2c0b4cb,
0x000000fa,
0xf2cdd1c7,
0x000000dd,
0xe0e500d1,
0x000000c5,
0xd5ea0be7,
0x000000f4,
0xced3e6fc,
0x000000e0,
0xe3c4ed01,
0x000000d6,
0xeecee0d3,
0x000000f8,
0xe52a2f17,
0x00000010,
0xf2fc2011,
0x0000001f,
0x0cec0ffb,
0x00000027,
0x12ed07ff,
0x00000018,
0x0f1c1df6,
0x000000f1,
0xf9eaf7e9,
0x000000ed,
0xf6f4e7e9,
0x000000f0,
0xf6ebe8fd,
0x000000f5,
0xe2ebf808,
0x000000ed,
0x05fdfefe,
0x000000f7,
0x0d09fc05,
0x000000e9,
0xf5fad8ea,
0x000000e9,
0xfdebf8d4,
0x000000f4,
0xf2d9e1cc,
0x000000fb,
0xd4c9d5d9,
0x000000df,
0xf4f2f8f9,
0x000000ff,
0x02f2dfce,
0x000000fd,
0xebeee5ff,
0x000000fa,
0x0cf8f101,
0x0000000c,
0x0df9ffec,
0x000000fb,
0xf7ffe4e8,
0x000000fc,
0x10faedd9,
0x000000f3,
0xf6f2e8ec,
0x000000f1,
0xfbfdff0b,
0x000000fe,
0x0a0102ec,
0x000000fe,
0x03ebf4d3,
0x00000002,
0x0ef7f6e4,
0x00000016,
0x03ebe4f7,
0x000000f8,
0x0d1614f9,
0x000000dd,
0x020a08d7,
0x000000da,
0xf1e70b02,
0x000000ff,
0xf4fc04fd,
0x000000ea,
0xe7fb03eb,
0x000000db,
0xe6d2e6df,
0x000000fe,
0xf1d4ceca,
0x000000f3,
0x02e91a1a,
0x00000005,
0xf9f70806,
0x000000f6,
0x09ff10ee,
0x000000ef,
0x041007fa,
0x000000fb,
0xfdf4e8fd,
0x000000f0,
0xcaf9f3e9,
0x000000b8,
0xd41f1a09,
0x000000d9,
0xeed90d3e,
0x000000fc,
0x0eee0313,
0x000000ff,
0x0d17f4f2,
0x00000007,
0xeee50624,
0x000000f6,
0xf91517f9,
0x000000e2,
0xf81f0e07,
0x000000ee,
0xecdfe30d,
0x0000000f,
0xefe1a8c2,
0x000000fc,
0xcccdf720,
0x000000d2,
0xc5deeb0e,
0x000000bc,
0xc0ec09eb,
0x000000ba,
0xaeed05e6,
0x000000f1,
0xe5d0c7e7,
0x00000009,
0x04e5e8d5,
0x000000e2,
0x01f5efb7,
0x000000cf,
0xc4fd20cc,
0x000000b7,
0xcfd8f5f9,
0x000000c5,
0x13e8db00,
0x00000028,
0x3b1916eb,
0x000000fe,
0x13191901,
0x000000d9,
0xeaf9101f,
0x000000b0,
0x9ce8f017,
0x000000d8,
0xc9e9f0e8,
0x000000e7,
0xf7fffaf3,
0x00000010,
0xe9df0af1,
0x000000fc,
0xc6e41909,
0x00000006,
0xd7ef2f0d,
0x000000fb,
0xd5f82819,
0x000000eb,
0xf10c0dd2,
0x00000000,
0x191005bd,
0x00000012,
0xfe0fdecc,
0x000000d2,
0xfb1df5f4,
0x000000ae,
0xe722fff8,
0x000000dd,
0xee0ffded,
0x000000e8,
0xf521e6f4,
0x000000fe,
0xdceccff8,
0x000000e9,
0xe2f1cddc,
0x000000dc,
0xe6eaa7c6,
0x000000eb,
0xb2ecfbed,
0x000000e3,
0xdbcf12ea,
0x000000e6,
0xcc0403de,
0x000000cd,
0xd00318e2,
0x00000001,
0xddff0ae3,
0x000000fa,
0xd8ecc2d1,
0x000000ed,
0xf9dfacf8,
0x000000f3,
0xfff2c60d,
0x000000f9,
0xfeb69ad5,
0x000000eb,
0x1adec3d5,
0x00000016,
0x22f4f907,
0x0000001a,
0x22fc0a25,
0x00000022,
0x2d01c710,
0x00000013,
0x30079ffd,
0x00000000,
0x1301c303,
0x00000008,
0xeba7cdd5,
0x000000ea,
0x04cfc7ef,
0x000000ed,
0xffcbc400,
0x000000fd,
0xe4d5c9ee,
0x000000f8,
0xeccce204,
0x00000001,
0xfbe2e51e,
0x000000d4,
0xf30feacd,
0x0000009e,
0xc6e204ff,
0x000000cf,
0xf3cefff9,
0x000000dc,
0xedd7eed2,
0x000000f7,
0xf9eefd0e,
0x0000000e,
0x0900fa00,
0x0000000f,
0xeaebece9,
0x000000df,
0xcec6f2f8,
0x000000ed,
0xf4f90cfd,
0x000000e3,
0xefd0e707,
0x000000f3,
0x10f8d806,
0x000000f7,
0xeee6cae4,
0x000000f0,
0xf9d6ddf0,
0x000000e3,
0x05050cfe,
0x000000fc,
0x170cf4eb,
0x0000001e,
0xe8d1ddf0,
0x00000003,
0xd5cae5c1,
0x000000df,
0xf3ebe4e4,
0x000000f8,
0x040706fc,
0x000000ec,
0xfe0af0f9,
0x00000011,
0x0815e8e1,
0x00000008,
0xf219fcd2,
0x000000f1,
0xff05d9f8,
0x000000ce,
0xfff7e6e1,
0x000000ec,
0xf8faedea,
0x00000006,
0x01040901,
0x000000f1,
0xfbff1a1b,
0x00000009,
0x021610fe,
0x00000018,
0x02f2f1ee,
0x00000009,
0x06fa1a19,
0x000000f7,
0x12fef702,
0x000000e8,
0xb4e1b59f,
0x0000009d,
0xd4d5e6fa,
0x000000df,
0x2f473b2a,
0x00000010,
0x0b01ea03,
0x00000001,
0x0efa0512,
0x00000017,
0x17011110,
0x00000037,
0x05110bec,
0x000000f8,
0xb4c8e9c1,
0x000000a1,
0xefe5f2e2,
0x000000fd,
0xe6ed0304,
0x000000ff,
0x08fd0422,
0x00000020,
0xfa0d040c,
0x000000f7,
0xa7fcc39c,
0x000000af,
0xeaff09f8,
0x00000016,
0xe9ec0101,
0x000000fd,
0x130f1715,
0x000000f2,
0xf4f40cef,
0x000000bd,
0xb8ce0d20,
0x000000c7,
0x0b150c01,
0x0000000c,
0x17fb0f06,
0x0000000e,
0x04eaeeeb,
0x000000fe,
0xbfb7cfe9,
0x000000b6,
0xc1e6f8dd,
0x000000b4,
0xf0e4f0f0,
0x0000001f,
0xc7f409f8,
0x00000007,
0xdd0711ef,
0x000000ff,
0xe51711f9,
0x000000ec,
0xfcf9f418,
0x000000dd,
0x0623eede,
0x000000f3,
0xd705f9e6,
0x00000017,
0xc5cde717,
0x000000d5,
0x04f5edee,
0x000000ca,
0x1e2b101f,
0x00000001,
0xc0d80128,
0x000000e8,
0xdef9020c,
0x000000f0,
0x03fb0006,
0x000000f0,
0x04fcf026,
0x000000e8,
0xeff1e81a,
0x000000f2,
0x00bb0519,
0x00000029,
0xe507100b,
0x0000000b,
0xfd1d06d9,
0x00000005,
0x111ce4d1,
0x000000f8,
0xf0dcda02,
0x000000eb,
0xfe1f19ec,
0x000000b5,
0x4434f6f3,
0x000000f4,
0x3d16d2da,
0x00000003,
0x04c5f9f7,
0x00000024,
0xd8c1d2e5,
0x00000004,
0x240bcfed,
0x000000df,
0x08d60ef6,
0x000000e7,
0xf0c81405,
0x0000000d,
0xfed4f8fd,
0x00000017,
0x1823e1fb,
0x00000004,
0xfdc5c1cb,
0x000000fe,
0xf4cde0d6,
0x000000ff,
0xf8fcf0ff,
0x00000003,
0xfdf9fa06,
0x000000fa,
0xe908f4f1,
0x000000fc,
0xf3f1fd1c,
0x000000ec,
0xbcf6edf2,
0x000000d9,
0xbbbcc4dd,
0x00000003,
0x10cdb6d5,
0x00000016,
0xf6d8ece6,
0x000000f5,
0xf2d7e4d1,
0x000000f5,
0xf7faf4f9,
0x00000001,
0xf20a1622,
0x000000e9,
0xeff21a2b,
0x00000002,
0xefcbdee9,
0x00000023,
0x0ff1e5c7,
0x0000000d,
0x160bebdb,
0x00000008,
0xf1e50efa,
0x000000fd,
0xd4ef0f1b,
0x000000f9,
0xe1e5fb0d,
0x00000025,
0x0e150801,
0x00000026,
0x0ef701e8,
0x000000fe,
0x06f0deee,
0x000000e4,
0xd3fa0912,
0x000000e2,
0xd8d6f6e8,
0x00000015,
0x131b1415,
0x000000d6,
0x1a351508,
0x000000bf,
0xf12b1501,
0x000000c9,
0xc9fa11dd,
0x00000006,
0x09dce9d5,
0x00000007,
0xfdfcefe9,
0x000000fb,
0xfed5d4db,
0x000000f0,
0xeae0df06,
0x000000dc,
0xdbe5091f,
0x000000df,
0xeafd2326,
0x000000ff,
0x08112405,
0x00000019,
0x2d2b02cd,
0x00000004,
0x0f1314e4,
0x0000000d,
0x19fceed3,
0x0000001a,
0xc1c2bce7,
0x000000e4,
0xf9eef50e,
0x000000fa,
0xfafae2dd,
0x000000f3,
0xd2c6d2f6,
0x000000e7,
0xfff8f505,
0x0000001d,
0x2221fef6,
0x00000023,
0xefde02e5,
0x000000fe,
0x00fee9d3,
0x00000011,
0xfdffeaf5,
0x000000e4,
0xf4012206,
0x000000de,
0x1d1f0c08,
0x000000fe,
0xfbfcf409,
0x00000015,
0x0df2ff04,
0x00000012,
0x00f003f7,
0x000000ea,
0x1c352df3,
0x00000012,
0x04362ae6,
0x000000f9,
0xff0e1117,
0x000000e3,
0x091a1a10,
0x000000f9,
0xfd2322ea,
0x00000015,
0xdad9ddd7,
0x000000ff,
0xdcb3afae,
0x000000d6,
0xf4f6f711,
0x000000e2,
0xeaf5ee05,
0x000000b5,
0xdf03090b,
0x000000c8,
0xc2e6e1ef,
0x000000e8,
0xe8e3dcfc,
0x000000f6,
0xfe0f1420,
0x0000001b,
0xd0eff913,
0x000000ec,
0xf6d9e914,
0x000000e6,
0x370ff3ed,
0x000000f6,
0x273730ed,
0x000000db,
0xd8f1f2f7,
0x000000be,
0xccebf1e6,
0x000000dd,
0xd7e3f401,
0x00000007,
0x16faf11f,
0x00000000,
0x032903f6,
0x000000de,
0x071c1216,
0x000000e1,
0x031413f5,
0x000000ee,
0xe0041220,
0x000000e6,
0xecdef020,
0x000000fb,
0x01f6e9ef,
0x00000007,
0x253111e8,
0x00000013,
0x252c15fb,
0x0000001a,
0xf41a282f,
0x00000005,
0xe9cffc21,
0x0000000b,
0xedccd614,
0x00000003,
0x0ae907ea,
0x00000002,
0xfdddf8f0,
0x00000011,
0x0bb7c4dd,
0x00000030,
0x17fc89e3,
0x00000021,
0x0522fc9e,
0x00000002,
0xfa08fbff,
0x000000f9,
0xf8f8050c,
0x00000011,
0xef06f100,
0x0000000a,
0x071efaeb,
0x0000000a,
0xf919f0ff,
0x0000000c,
0xe9ffcdd6,
0x000000bc,
0xf5eef0de,
0x000000dc,
0xe9f5ddd3,
0x000000c8,
0xe20becd6,
0x000000c0,
0x160108e7,
0x000000e6,
0xf7fbf81c,
0x000000d9,
0xe8e0cfdc,
0x000000e7,
0xee14dbe7,
0x000000f5,
0xe415d808,
0x000000e6,
0xe0e29fe1,
0x000000f0,
0xee040121,
0x000000e3,
0xef04e7f0,
0x000000e5,
0xcafbf8fb,
0x000000b7,
0xbd0af5c4,
0x000000ce,
0xd8eee1bb,
0x000000e7,
0xe2cddad5,
0x00000000,
0xf7cf020c,
0x000000fb,
0xfceef10b,
0x00000001,
0xf5b7d11d,
0x000000f0,
0xe6d5e119,
0x000000fd,
0xecd9f915,
0x000000fc,
0xf7eff715,
0x00000014,
0x05fd1e26,
0x0000000c,
0x03021f18,
0x00000019,
0x08ee1c18,
0x00000015,
0xe4fee1fb,
0x0ceb0035,
0x0e1427e4,
0xef0d0512,
0x26fc0aea,
0xe311f4e2,
0x0ff7ff20,
0xebeff714,
0xdfec13eb,
0xf31efcdf,
0x0be2eef4,
0xe8e70d15,
0xf70c0af7,
0x000d09f0,
0xf30bf8f8,
0x1bf802f6,
0xdbe503dd,
0xfcf0f2d1,
0xf5f1eaf8,
0x0d0ef501,
0x08060d1b,
0x18f1f3fc,
0xfa02ef00,
0x11dddf06,
0xd7fa01ea,
0xfef9f60e,
0xf2edff0e,
0xdef4fd0d,
0xfbfc14ec,
0xef10f8f3,
0xd0d7ebf5,
0x1cf7eeee,
0x0805fb25,
0xeff11215,
0xe2050eef,
0xf600ecee,
0x1803fcdb,
0xfdf7f111,
0xf2f4f5f5,
0xfa07f1ee,
0x04f9041a,
0xeffc1802,
0xf0fff1e7,
0x070bf9e4,
0xe4060606,
0x08091df8,
0xfcfaf6f0,
0xdae5f207,
0xe306fa04,
0xe60615e6,
0x1c3312f6,
0x2c07da10,
0x07f104ee,
0xdefef11f,
0x0ffce1e4,
0xf9f407de,
0xfd0e1304,
0xf3130008,
0x0008f30c,
0x02dd00ff,
0xe40cf2ea,
0x0f01011d,
0xf5111fdf,
0xecdaf7f0,
0xf00e0d0a,
0xe6e4e7e6,
0xfdeb07fb,
0xdedd0a06,
0x00f8e5e1,
0xf208eaf0,
0x08eae6d1,
0xebfdf309,
0x1c03fbe7,
0xf60bfcde,
0x1603dbf5,
0x020e0af3,
0xfd08eaf6,
0x00fadde6,
0xf700fbd6,
0x0ff1f2ec,
0xf5210f19,
0xfae5e2f2,
0xd7fd0d0d,
0x280d0f0b,
0xf1fc1110,
0xea0cfdfb,
0xd9061001,
0x0f0907cf,
0x130bd213,
0x16ead415,
0x09fbe6e1,
0xf417031c,
0x111408ed,
0xfc14e4e9,
0xfa0b0a10,
0xe83811fe,
0xe3dcefde,
0xeecddcc8,
0xe5d7e3d4,
0xf7020213,
0x0d29fccb,
0x23e80518,
0xe0131918,
0xdbf0160b,
0xf41315f5,
0x10000f1a,
0xd9d1e4ea,
0xb1c514f2,
0xdcfcf9ac,
0x10cefbe2,
0xe3deebe5,
0x0d1d25e6,
0xdbd7d1df,
0xf8f6ecd7,
0xc2f4daf2,
0xe1d7fbf4,
0xe0e4f4cd,
0xfcdfeff0,
0xd615ff02,
0x00120cf5,
0x0f110ded,
0xd509fafa,
0x11feff09,
0x0dfc0ec8,
0xf9fdf5ea,
0xe0dee0c9,
0xe90a01ec,
0x01f206fd,
0xf1d4e1f6,
0xdbb6bfd8,
0xf1f2fbef,
0xe8f9fa04,
0xe3f8dd0e,
0xe1e71e0b,
0x100bf90f,
0x27e3390b,
0x38100e26,
0xebf5fc26,
0x0407fee3,
0x0bfff5f9,
0xf7f403fe,
0xf1f2fcfa,
0xe1f7f1fe,
0xfa070df4,
0xf10e1016,
0xe3e1120f,
0xfcf504e3,
0xec1e0006,
0xfa00241e,
0xcee61c36,
0x1e1a1fd9,
0x05ffcd14,
0x04daebf8,
0xf40bce04,
0x1dec2309,
0x011e080c,
0x07f8f0e6,
0xda0408fb,
0xf702f7fc,
0xed1102d7,
0x1400f506,
0x1c0e07d4,
0xbae4f108,
0xeb030ad3,
0xe919cada,
0xeae3edfb,
0xe91215f4,
0xf9ef0924,
0x0de6ecef,
0xf1eff412,
0xdd0613cb,
0x1befd0f3,
0xeef8fdf3,
0xd9f1f015,
0xdb0e23df,
0x120ee40e,
0x00e308fa,
0xdc21fe08,
0x11073ade,
0xf4253004,
0x061921fe,
0xf8feeeec,
0x06f502f4,
0xf3f9cefb,
0x03d7d5e6,
0xfeefcbce,
0x06f9fffe,
0x1bfd1f1a,
0xebfb12fc,
0xf508130a,
0xdc1c13e3,
0x05fcf9e5,
0x0c3ae3da,
0x0f0f1001,
0x0333f70d,
0x1bec09fe,
0xfc0ae4ff,
0x0cf40812,
0x111d2a11,
0xfa150ff8,
0x1e0fe3d7,
0x08f3d42c,
0xdfc40915,
0xa9de0b25,
0xf60604ae,
0xf8e8a7e3,
0x15210b17,
0x151ef203,
0x1efb0216,
0x0211161c,
0xfdff0604,
0x1f1e1ff3,
0xf806ea14,
0xf3fcf9fb,
0xff0a19ec,
0x10f0e7f9,
0x15233f07,
0x233a1d0a,
0xe0fa1403,
0x1c04fbed,
0x09fee3cb,
0xc1cdb80d,
0xd1bef501,
0xff0507e2,
0x0b090a08,
0x000f010e,
0xfb180f13,
0xe4be08f0,
0xe7d2f704,
0xf4f103f8,
0x091506fe,
0xd4d1cc0a,
0xd2e40304,
0xe215fcda,
0x03eedefb,
0xf4d4ecd6,
0x29e4e80d,
0x110a210f,
0x0df1f0f6,
0x0f0aeced,
0x1405edeb,
0xf71110fe,
0x0e10edfe,
0xf0f004fc,
0x1928e6f8,
0x09ffe801,
0x010e1400,
0xdaf70102,
0x07f301db,
0x1e0afe0e,
0x0510fa04,
0x04ecc4fc,
0xe7ead61c,
0xe8f2da13,
0x00f826b8,
0xe2eebef8,
0x0df70507,
0xe7e40622,
0xd81b1c0b,
0x0c0514fe,
0x00eadacb,
0x02d1d802,
0x1afa0f13,
0x110d1517,
0x1bfef603,
0x1d01f70c,
0xef0b1402,
0x0a07eced,
0x2d050203,
0xfd12fa19,
0xe3daf00a,
0xf7d3d6be,
0x04edf501,
0x17f9130d,
0xe60b1a0c,
0x2ced07fb,
0x0f16fb1b,
0x081e1103,
0xc715f40d,
0xdbe8f0b8,
0x0dddc4ae,
0xfc1e2110,
0xdacff9ea,
0xd2110dfe,
0xed07f3f6,
0x19030816,
0x010efbf3,
0x11d8d6ef,
0xfe161219,
0xf50b0105,
0xeee8c3a4,
0xf9bfb4ca,
0x1e030c26,
0xfb07262c,
0xfe0ff0f6,
0x05fbfffb,
0x1df2030e,
0xfa070907,
0xfff249fe,
0xec01e9ef,
0xfdfc07f1,
0xf501ef0d,
0x1101eff3,
0xf8f5d7e7,
0x1204f80a,
0xfefb210b,
0xfcfc181c,
0x14140815,
0x32e0dbec,
0xfaffee28,
0xfb0208f5,
0x14100702,
0xf3090dfe,
0x06dbe8f4,
0x1c08ff03,
0x00f10b17,
0x0907ec02,
0x190f08ee,
0xf204050f,
0xfcf2e0fe,
0x0a09fbf3,
0x02f5f708,
0x0cfbfef5,
0x0818fc06,
0x00030409,
0xf4eaf90d,
0xe6f500f0,
0xeffbfceb,
0x05ebfffa,
0xfbf3f615,
0xebd8d9eb,
0x17fcfcf5,
0x0b0bf00d,
0x13e41225,
0x03110501,
0x00290b0f,
0x0f3028f2,
0x12ff0dfd,
0x0203fa02,
0x0604f90a,
0x060a1207,
0xff070507,
0x150a0001,
0x0e00f908,
0x0f0b0507,
0x031bf70e,
0x1008f402,
0x14f1fb0f,
0xfde60af8,
0x00091b04,
0x110001f5,
0xea030504,
0xfd050519,
0x0bfefbf9,
0xfa271407,
0x020a0e02,
0x0702f5fa,
0x0d14f2f7,
0x0ee9f8f0,
0x03fd0607,
0x17fafd06,
0xf9ff0b0a,
0xf8f01116,
0x0207f80b,
0x04020312,
0x0e09f4f9,
0xfdfd0908,
0xf7f5f8f4,
0x15fcefef,
0x02eff6fe,
0xf6f80ff6,
0x1506f7f8,
0x1c02e7fa,
0x01091327,
0x13420405,
0x07261c1e,
0x241a00fe,
0x1425ec06,
0x0204fcfd,
0xe5fc28fe,
0xfafc032a,
0xfe131ee4,
0xe408e30b,
0x01ff04f2,
0xfb040b05,
0x11f2f1f0,
0xe4dcfc24,
0x0beefce1,
0x070cf3ef,
0xe9fcf903,
0xf1f0fdf2,
0xfeea07e1,
0xee160504,
0x241306e4,
0x0f390ff7,
0x22f3f707,
0xf6f5fb13,
0xf42df800,
0x17de03fe,
0xda081d0c,
0xd6131a0e,
0x051425dd,
0x2521e1ca,
0x49e7ba0b,
0xd2e1023e,
0xb8ff1305,
0xebe1ffde,
0xf8fcfafa,
0x020803f6,
0x1419ddeb,
0x0df0decd,
0xddc0b817,
0x24060a12,
0xfe15171a,
0xf4e20921,
0xeee9fc07,
0xefe3c2f3,
0xd8d20511,
0x190118ff,
0xf5ea081e,
0xf702fc0f,
0x1a0a1af5,
0x1226d3f5,
0xb908f809,
0x1b3315f6,
0x150b01f9,
0xf1daec02,
0x04f6010d,
0x021501fe,
0xfaf1ff09,
0x1f0eebf0,
0x2c101514,
0xf00e0f0d,
0xf9f506f3,
0x06fdf7c9,
0xff0ed936,
0xcfc4dffc,
0xe8f2130a,
0x010dfdf7,
0xf0fc080a,
0x01f2f806,
0xfff1fd03,
0x02f20605,
0x20000b0b,
0xf2ec1711,
0x12edf405,
0xe9d7d801,
0xf1fe2e08,
0xe506e603,
0x0803d5c4,
0xe8f4fd14,
0x061a0dfe,
0x0b100aed,
0x09f3e90a,
0xe6efff2f,
0xe8d62e0b,
0x1114071a,
0x0ff8fafe,
0x18f3f7f3,
0x04080619,
0x0419201f,
0xff2717ff,
0xd900f1ee,
0x11e9e8dc,
0xde0a0bec,
0x14fcc9ef,
0x11bace10,
0xe60406f5,
0xf8121a05,
0x27f916ee,
0xf70a1609,
0x16111915,
0x070d07f5,
0xeb190e01,
0xebe3fd0e,
0xe7f6f2ee,
0x13edcff1,
0xe8edfdf9,
0xf701fcef,
0x02040bfb,
0x0915f40b,
0xfce8eff1,
0xf4ffecf2,
0x05f7f2f4,
0x1406e9ef,
0xf8f3ecfd,
0x201610ff,
0xdd0cf416,
0x02eaeefe,
0x1af801f1,
0xd50a4d48,
0xe8273304,
0xeade0ed4,
0x130ef4f4,
0xfafa05f9,
0x0e16fbfe,
0x16091afe,
0x083106fa,
0x15240012,
0x21f3b9d8,
0xef0d01f9,
0xe81314ed,
0x1012f2e8,
0xfa02f7e8,
0x030ddaf7,
0xcdeed9f6,
0x07f907ff,
0xfff4f401,
0xe4def610,
0x0aeed7da,
0xfcf4efd7,
0x00e3eb0a,
0x0c0c0007,
0xf1f4f2f2,
0xf2efd1f4,
0xd9e0ebda,
0x0609f4e7,
0x10010021,
0x0cf2fb19,
0xfcf3dcef,
0xefe5dff1,
0xe8f6f002,
0x18030afc,
0xeb0efd05,
0xf10e1a04,
0xd80a0305,
0xf5f30cdd,
0xe9f0f1fa,
0xf0fff6f0,
0x14e1f0ee,
0x08f4d9d9,
0xe2f4f90a,
0xe402f7c1,
0x00feffcf,
0xf6cbf1e3,
0x13fd0bed,
0x130b05eb,
0xf5f9fa04,
0x04f5fbf5,
0x12fbede6,
0x0409f6e7,
0x0208f308,
0xf9f5fc05,
0x0df21208,
0xddf5e9f7,
0xf9f3fbec,
0xe1f0da06,
0x0b19dbe7,
0xf5e1f1fd,
0x02e7e704,
0xeee5fdf5,
0xfffcfbf9,
0x130ff705,
0x03fdef09,
0xf6f8e2ff,
0xf4f10007,
0x0105eef9,
0x08fdf202,
0x0ff5ff0c,
0xfffaf10a,
0xf8e9080c,
0xf20504fa,
0x07fe0afb,
0xefe4f916,
0xfbfaf9f6,
0x11f3edeb,
0x041ef205,
0xd9f1e400,
0xd81c0ef5,
0x1a1701df,
0x09ddd7dc,
0xf5e5eb05,
0x0d031af2,
0x0503fefc,
0xd9110220,
0x21f3f5ef,
0x090bf0d7,
0x0b1b00f5,
0xf603ffea,
0xfbdfe5f7,
0xdcbbd602,
0xfff30704,
0xeeecff0d,
0x081c1f04,
0xfc0ef4f0,
0x0c0b0cfc,
0x14ff06fc,
0x0b13f00e,
0x13fd00ef,
0xf4faf9e3,
0xfac0e5f6,
0xcef8f203,
0x10110def,
0xfa1a0eee,
0xf0e0ecf1,
0xef210804,
0x111405e3,
0x1e1af3f4,
0xfeed0d13,
0xfa18fa03,
0x080afb0a,
0x16f820ed,
0x1b2ae9f3,
0xf1f4de16,
0xf5ea2519,
0xe03afef0,
0xecd7fee6,
0xededfb00,
0xcae2f0fb,
0xe8f0f4e4,
0xf9fed8d0,
0xe7c5c5d7,
0xef0300eb,
0xf4fcefec,
0x26270305,
0x18fdc3ad,
0x0f02c5fe,
0xfeccc60b,
0x0ad4f60e,
0xe1022f19,
0x0c23312d,
0xf50feaea,
0xeff3ae10,
0xd8041206,
0x0c1b16ed,
0x000de0e1,
0xebf406f3,
0xedf1ceee,
0xe8eaedf1,
0x01000adf,
0x10fdfe05,
0x2a160d03,
0x17111432,
0xfc0a012b,
0x0cf9fff2,
0x07070803,
0xe6eff0f5,
0xf1e7150f,
0xf30bfef6,
0x0101fde7,
0x00f8e0f7,
0x080906f8,
0x02f9f006,
0x18f70106,
0x13324028,
0x19161e1b,
0xf72004eb,
0xfef1ccf6,
0xcefbf004,
0x040012d0,
0x03120416,
0x0efd07fa,
0x0c09f7cc,
0x0714d012,
0xfcfb030e,
0xca1c0f00,
0x1c091000,
0xf9100d04,
0x1ceef313,
0xf2e20704,
0xe107f416,
0xfcee02fb,
0xefddfc00,
0xbe231cff,
0x151b04f3,
0x05effdca,
0xe5cca0be,
0xedffd8ee,
0xd50b050c,
0x0403cbc5,
0x01e8cae5,
0xf7afe029,
0xa5e225f4,
0x130b00e7,
0xf9fa00fc,
0x30291b00,
0x0e17fc19,
0x2702f51b,
0xf8d0cc12,
0x09e002f6,
0x1e0ee5f6,
0xf5e1d305,
0xd4c51cf7,
0xf201e8ed,
0xd8dedad7,
0x0006fd08,
0x1df8fd0e,
0x1319f408,
0x11ef0611,
0xf4e4030d,
0xe7d7e40f,
0x08e5f828,
0x0ffa1c03,
0x04f7fdfc,
0x071a1211,
0xfaf315f8,
0x23150605,
0x1a020017,
0x0900fe2d,
0xfee6fa0b,
0xe1ffe711,
0xfcfd1aee,
0xf302c9d2,
0xfae3160e,
0xf6f005d5,
0xf4e7f312,
0x030d0115,
0xfbbf0201,
0xe0010500,
0x14210ffd,
0xedff1400,
0xeb0dfcda,
0x0b00c9d1,
0xd4030703,
0xeceae9f2,
0xf9ef04e5,
0xc3f50cfe,
0x071bf4e5,
0x24e1efed,
0xf4b30516,
0xf6d100fb,
0x090802f8,
0xf4021614,
0xe9f8ebb4,
0x0c0a0409,
0xed0a0917,
0x03e400ed,
0x1901fa0d,
0xe9e8f20a,
0xcac9e605,
0xebeddff1,
0x04fc21ed,
0x04040601,
0x13fbee08,
0x0bfec1f1,
0x0adbe614,
0x1bf1fd13,
0xedf3201a,
0xfb080400,
0x0108f816,
0xebf918f8,
0x030402f9,
0x0d10f2f4,
0x1609fd01,
0x0706e808,
0x11db12f2,
0xe7adf702,
0xb90a0f29,
0x00e700e9,
0xf010fdf2,
0xd4d9b1f2,
0xfde501f5,
0x09f80dc9,
0xebf9e90b,
0xf61f1ded,
0x1808f1f6,
0x0106f630,
0x041801f8,
0x0ef4fbec,
0x030307fd,
0x06fee90c,
0x100407ed,
0xecf3f6f6,
0x00f90d07,
0x08f1f605,
0x1dee1219,
0xe4010032,
0xdef0ecf0,
0xc30107d9,
0x16f60ff3,
0x1412c1c2,
0x13222af6,
0x2c0ee801,
0xe6effd0f,
0xebe82705,
0x21fcf11b,
0xead2f702,
0xc6ffec0f,
0x1bf735f1,
0xddfeeac4,
0xeff9f2e0,
0xeef7efde,
0x2229efec,
0x17e4fb17,
0xfbfc091f,
0x14f6d9ff,
0xe2fd05ef,
0xe911eff8,
0xe3e6eae9,
0x01030ad2,
0xfa0dfff5,
0xfb14e9f6,
0xf0e2f9e6,
0x1f04f812,
0xf9d7d6e5,
0xfcdcd416,
0xd4ea18f9,
0xf91effe1,
0x1518ea0a,
0x101008dc,
0x05fdfcfe,
0xfd01fefd,
0x03fcfdf9,
0x00f9fa02,
0xfcf90004,
0x03fbfdfb,
0xf5faf305,
0xf800f702,
0xfd01fdff,
0x02fffbfa,
0x01fdfdf9,
0xfbfef0f7,
0xfef7fffa,
0xfafbf805,
0xfbfd0501,
0x03fd0400,
0x02f7f703,
0x0604faf9,
0x020001fc,
0xfafcf903,
0xf702f4f5,
0xff07ff03,
0xf8fbf7fd,
0x05fdfefe,
0x00fd05fb,
0x0202fe00,
0xff0200fb,
0xf7f7fbf8,
0xf9f805fb,
0xfdfffdfa,
0xfffafd01,
0x00fd00f6,
0xfdfffcfb,
0xfc02fafb,
0x0302f805,
0xfefefafe,
0xfd060602,
0x0106f901,
0xf802fd01,
0xf8fc0105,
0xfefe04fb,
0xf8fefdfe,
0xfdff0100,
0x0104fd03,
0xf90502fd,
0xfefb05f7,
0xfc04faf7,
0xfc01f904,
0xf8ff05ff,
0xfaf905fe,
0x06030203,
0x00ff0104,
0x06fef901,
0x01fefa02,
0xfafcfafc,
0xfff9fb00,
0xfafe0600,
0x0205fb02,
0x06fb0004,
0x01fd04fe,
0x00f8fffe,
0x060004fc,
0xfe03fbfb,
0xf702fdfc,
0xfe00fbff,
0xfefc0402,
0x01f6ffff,
0x010106fa,
0x01fbf9fb,
0xfbf8f7f9,
0x06f704fe,
0x05f7f600,
0xfd01fdfd,
0x050402fe,
0xf7030103,
0x02f8fc01,
0xf6fffa04,
0xf8060603,
0xf9f9ff00,
0xfcfafa04,
0x00fffd01,
0xfb0301f8,
0xff01f5f8,
0xfffafbff,
0x02fb00f3,
0xfbf80700,
0xfdf9f4fe,
0xf9fffa02,
0xfa04fbf9,
0xfcfaf8fb,
0x050403fa,
0xfc05fc05,
0x00fefcf6,
0x05f80000,
0xfe030000,
0xf7fff7fa,
0xfbfdf802,
0xfa05fdfc,
0xfe020600,
0x01fafd02,
0x0c09021c,
0x09f220f3,
0xfe14f413,
0x04ef1b05,
0xed2d1603,
0x0a1308e3,
0xede6f7dc,
0xdced291a,
0xc0fafe05,
0x07080dd9,
0x1419effa,
0xd1b9ccfa,
0xe3fbfae3,
0xf1f2e1c7,
0x272519ff,
0x1cfff4d6,
0x0ae7d212,
0xdaece703,
0xfbcdfafa,
0x002117f2,
0x353e08f2,
0xfe02d7e3,
0xe8dabef9,
0x0befd6f9,
0xfb04e5ec,
0x04e0d3db,
0xfefaeeff,
0x02fb1401,
0xe6e51d06,
0xfb03f9f7,
0x08faffef,
0x2a1d17f0,
0x070f1720,
0xf81e282b,
0x041904f0,
0xf7f0080b,
0xf609000b,
0xeaec1afe,
0x01fffdf5,
0x06fff7fb,
0x0901f6f4,
0x0605fc02,
0xedf3eff7,
0xf6fc0f10,
0x10214c2a,
0x10171e00,
0xf804f004,
0xe8ddf2f2,
0xe7120102,
0x0004fbf0,
0x0f112b35,
0x02033a3e,
0xee2008ee,
0x0ef0c901,
0xf0e207fd,
0xe40f10f6,
0x1d041fe4,
0xfc1512ff,
0x1202f70d,
0xf2f3030f,
0x120c0400,
0x02ffe7e4,
0xcee6f800,
0xdf2d0dde,
0x1416fada,
0x02e304ff,
0xfcf2e6e0,
0xfef10b01,
0xfe0d0e11,
0x0dd8ddf4,
0xc3e0ee06,
0x08f60dfe,
0x02270feb,
0x130af700,
0xea040119,
0x16241ef8,
0x04080f1a,
0x03e1f70b,
0xf205d4f5,
0x11feecf6,
0x12ebf0fe,
0xe0ece6fc,
0xf806e2cb,
0xfeefe8fe,
0xe0f2f2f8,
0x171602fc,
0x12fbea0e,
0x0f281a04,
0x1001f80d,
0xfdeff009,
0xf20ce50e,
0x05ee00fd,
0x16090ce4,
0xf6f5f9fa,
0xf719281a,
0x010629f3,
0xfd020af3,
0x040df0e6,
0xfb0a0c0b,
0x090104fa,
0x1308cac0,
0xdeccfe1b,
0xe4f40517,
0xc810f2ed,
0x00210ccf,
0x180dfaea,
0x05f813fd,
0xe7eae902,
0xfbd5f0e4,
0xfbd50810,
0x13fd2817,
0xdc091617,
0xfc0c08f6,
0x04f8e2ed,
0x262a07f3,
0xf5eefc1d,
0x14191605,
0x28192217,
0xf62b131d,
0xff2418f9,
0x0d150ede,
0xd7e9ec09,
0xeaeafb01,
0x16e71b08,
0xd908f0e5,
0xe5fee8e3,
0x11291ce0,
0xfefef5f1,
0x0c051605,
0xf9fbe2eb,
0x0b01060e,
0x04f20113,
0xc504e60e,
0xccfefffd,
0xf4131100,
0x0b060df6,
0x0c0efd01,
0x060bdb0b,
0x11f4eafa,
0xfe0002fe,
0x05f9f2f1,
0xe6fb0404,
0xf70bf4ff,
0x06fe0aeb,
0x2125f4f6,
0xfbedfb0f,
0x0501eefd,
0x171ef703,
0x0be61b1a,
0xdddb1423,
0x121113fb,
0x10f1ecff,
0xeecfd819,
0xe8ecf509,
0x0ef927fd,
0x012215f4,
0x0ceffbdf,
0xf1e4060a,
0xdf0f03f0,
0xfb150309,
0x0e13fcf6,
0x1507f3f2,
0xe4e6e509,
0xfa00fef5,
0xf8eff4f8,
0x03f91319,
0xea1c1af6,
0xfbe9f70a,
0x35e802f8,
0xe7d1d00d,
0xe1e11425,
0x090cfdc8,
0xf6f2f5f6,
0xed060913,
0xf80d13ec,
0x23f5e805,
0xf7dadf12,
0x14300701,
0x20fe000e,
0xe0fe122b,
0xf1f11012,
0x0f1f0bf6,
0xf902e0db,
0xfbf701ea,
0xf8f8d3d1,
0xfef1ebf5,
0xfef60c01,
0x1809160a,
0xfc070bfd,
0xd2feecfa,
0xe1e2e3d9,
0x03e1f3f0,
0x1ef9ecec,
0xf1ecf8f5,
0x0d27f606,
0x1701f8ec,
0x2a15e90a,
0x1ef3f72c,
0xfce93d14,
0xec271119,
0xe8f91af2,
0x0e1b14e3,
0x010ff7e6,
0x0d05ec10,
0x030c120b,
0xe00a2eff,
0xf7f50ffb,
0x0509f70b,
0xf7d0e4ee,
0xf6e2eef0,
0xfeeef0d9,
0xd1cec906,
0xf81512ef,
0x01def2f8,
0x12fee907,
0xe20ef6ce,
0xfce4cbff,
0xe8bbfdf8,
0x143e1500,
0xf2f1e509,
0x1902011c,
0xf70ff918,
0x0e1f0623,
0xe1042016,
0x031a03d1,
0xe505f217,
0xd1e9f2bb,
0xe5f5cdbc,
0xde0ee8dc,
0x0afee7e6,
0xff02edd2,
0xf11bfa02,
0x0af104e3,
0xe7e3f8db,
0xfe0e12ee,
0x03fdfaf4,
0xe5def9ed,
0xf804fef8,
0xf20f0cff,
0xfaf2f0e8,
0x00eddcf6,
0x05e4ebfd,
0xf700070a,
0xfb0e040c,
0xe4f91ffd,
0xe71720fb,
0xfefd16d7,
0x0908f7f8,
0x09010c06,
0x0607faf4,
0xf00120f6,
0xf60cf9fd,
0x100d0ef3,
0xfa130902,
0x03eaf91d,
0xe8f11010,
0x0e0afd15,
0x15e201ed,
0x2b05eb1e,
0x0c0b1d07,
0x0715fefd,
0x0a081f0b,
0x111afe03,
0x0cdd1603,
0xebe8faf4,
0x00f7f102,
0xe6f3e9fc,
0xd2c9fce6,
0xdc0cf8ee,
0x11f6141d,
0x1224f7dc,
0x07ede7f5,
0xedea1112,
0xe0f8f0ea,
0x2c280eff,
0x181e1c14,
0x0c322b06,
0x000ef906,
0x08fce3eb,
0x05e7020d,
0x0a07dd0b,
0xf2d8f004,
0xd9b1f1e6,
0xeb0ee7f3,
0xf2ded3d9,
0x05fbdbd3,
0x06fcee2e,
0x21022c17,
0xf4e2e20c,
0xf8e7190f,
0xfd0ef2f3,
0x0e0bf204,
0x0405f3f5,
0x0bf20a03,
0x1b31fa01,
0x050bfef5,
0x0408ea0d,
0x171efb14,
0x19ee150d,
0xffed05f8,
0x120c2a0b,
0x070ee4de,
0x0fdfab14,
0xd1e705fa,
0xe6e1d6ef,
0xeeded7cc,
0xffc4c0ea,
0xdabe4732,
0xe11803fa,
0x1f151bf0,
0x0010021f,
0xf6f50dd3,
0xd9ceecfa,
0xe8faece8,
0x07fc05ea,
0x101e0b07,
0xfb053207,
0x0700f1fa,
0xdecc0807,
0x0cf31a09,
0xc3173d0a,
0x1d12f2b9,
0x08cdf6f7,
0xf529e5f0,
0x180bf5e4,
0x1df7d0b6,
0x10fddd42,
0xfbe608e5,
0xf0c2db0b,
0xf203140c,
0xfb00090e,
0x1c15eaf9,
0x30ec0605,
0xebf6f737,
0xdff6fd07,
0xf1fddfd6,
0xe9e5fde6,
0xdfe91305,
0xff0f03ec,
0x0cfaf9fb,
0xf004fc05,
0x04131ff6,
0x0707f303,
0xf5eaf3f9,
0x2e1e2f2b,
0x03250116,
0x0aea0601,
0xd8e29f08,
0x03eee5f1,
0x0d0d24e9,
0xfd051120,
0x0c0f13e5,
0x14fdbbc8,
0xeaeae412,
0xfefefa01,
0xe4c1bee1,
0xfd152010,
0x19150601,
0xfbf5070b,
0xe1e508fb,
0xf6fefaef,
0xfaebeb07,
0xe0cb10fc,
0xdd4c26f1,
0x3a1ff204,
0xf8f41901,
0x170af301,
0xfee8c2d8,
0x09ebf6fe,
0xf107e40c,
0xdce5eef3,
0xf9f60afc,
0xef03f71e,
0x14030403,
0xf1eeed03,
0x0df92513,
0xedc4f831,
0x18eef8f6,
0xd7c4c82a,
0xf1f2fbed,
0x1915eef1,
0xfcf2cf08,
0x152117fc,
0xe824f8fa,
0xcbeff703,
0xfbfc0d0d,
0x0a00f4ee,
0x0509cff1,
0x10e9f5f5,
0xa1c1c406,
0x19eae8e5,
0x15eb01e9,
0x1e1e0725,
0x130a1b25,
0xa9c22122,
0xf21c3a19,
0xfaf803ee,
0x10d11bef,
0xbeedfb07,
0xfb02f0eb,
0x02fbfbf8,
0xf9f8f7fd,
0xfefffcfb,
0x0504faf9,
0xf802f8f8,
0xfefd02f8,
0xf9f7f5f9,
0xfbfe02fb,
0x0500fcfc,
0xfdf9fe03,
0xff000302,
0xfcf7f9fd,
0xfbf80100,
0x00fdf9f8,
0xf703f7f6,
0xfd00fc02,
0xfffbfb01,
0x05fcfa02,
0x000601ff,
0xfbff00f6,
0xf9f80402,
0xf9fb04f8,
0x000002f9,
0x03f502f8,
0xf9f5f703,
0xfef6fcfd,
0x01fdfc03,
0xfbfbf905,
0x00fcfdfe,
0x00f5fcfa,
0x05f7f702,
0xfef8fa07,
0xfdf800f6,
0xfafef7fb,
0xf502f900,
0xfbfcfffa,
0x02fbfa03,
0x05f801f8,
0xfef90105,
0x04fbf704,
0x0001fb04,
0xfbf607fb,
0xfff800f9,
0xfaf805f9,
0xff02fb02,
0xfcf8f9fd,
0xfc04fdf9,
0xfd01f5f8,
0xfffff5ff,
0xf3fc03fb,
0xfcf8f5fc,
0x02f9fb04,
0xf6faff03,
0xfcf6fdf9,
0x03f5fd01,
0xfbfd0004,
0xf804fef8,
0x00fbf9fa,
0x03f9f4f9,
0x000403fb,
0x02fd0205,
0x01040200,
0x01fcfafb,
0xfafbfefb,
0xf203f8fd,
0xf8faf700,
0xf9f9fef9,
0xfefafffd,
0x05f7fb04,
0x04fef900,
0x03fbfe00,
0xfff6f9fa,
0x01f302ff,
0xfefdfbf4,
0x01f903f9,
0xff06fcf8,
0x03f904fa,
0xfafcffff,
0xfe03f603,
0xf8ff0200,
0x00f8f902,
0x01fbff03,
0x04030600,
0xf6fa05f8,
0x00fffa00,
0xfc01fefa,
0x02fff8ff,
0x06fa0704,
0xf7f9fe04,
0xfcf8ff01,
0xf7fefaff,
0xf7f4fafe,
0x04fcfcf8,
0xfdf9fcff,
0xfbfbf7fe,
0xf7fff600,
0x0002f9fc,
0xf900fc01,
0xf4000201,
0xfd02f603,
0xdef7fae6,
0xefc0c1fe,
0x0806f3dc,
0x27fa00d9,
0x20fcea1d,
0xdadcfa0f,
0x052019fd,
0x00ecf01e,
0x16fb0ff1,
0x020d1014,
0xf3f3d1c5,
0x1700f1ea,
0xe904f4fd,
0x0ff3fae9,
0xefbcf012,
0x0c332f2d,
0x01e0e6e9,
0xcdce00f9,
0xe92010db,
0xddcad0df,
0xf701f5f9,
0xfc103702,
0xfb1df414,
0xe3022105,
0xf2f50ee2,
0x2002eff1,
0xeb0301e6,
0x001dcae8,
0x23f9ebeb,
0x05ef0d0f,
0xfffef705,
0xf0d3fcfe,
0xe601ffe0,
0x1df81123,
0xf6231819,
0x1a0c0cea,
0xe8e7f704,
0xf9f0f0b3,
0xeb04ff00,
0xf3f3f2ee,
0x04fcf1fa,
0x09000a0a,
0xfbfe1f11,
0x1c1901ff,
0xd9e4f303,
0xf408372f,
0x0f031c0d,
0xf2e20414,
0xf605052f,
0xf9ebd40e,
0xedf4d5e1,
0x0bdad01a,
0xf4c61dfb,
0xfb0cffec,
0x05f1f029,
0xfb14f8ed,
0xf7f3fdf3,
0xdef0f9ff,
0xd401edf5,
0xfef802d7,
0xfc0d1b09,
0xfb071503,
0x120105fa,
0x11d6f710,
0xfd0d210c,
0xfbd4fdef,
0x0b0ddbe8,
0x1706f9ef,
0x16f4f105,
0x19140f04,
0x040512fc,
0xedd5fd15,
0xede0fc08,
0x12290701,
0x11331300,
0xd9111c25,
0x14ee0904,
0xf900ea0e,
0xf7df0a11,
0xf4f10f0e,
0xf1ed1b32,
0x110ae0fc,
0xd3130316,
0xecf5e3c7,
0x0feee9f0,
0x10ee0c08,
0xfef8f70f,
0xf6f0391b,
0xc50e05ef,
0x270ceaeb,
0x12f403fe,
0xf6f21500,
0xcff3eaf0,
0x08e1ddf3,
0x04140e01,
0x281c0610,
0xdb08e018,
0x06f0f005,
0xecf9f0fd,
0xe2e201fc,
0xf41f0e0c,
0x0ef7100c,
0xee21edee,
0x20c50207,
0xf0e32107,
0xe2f01817,
0xf70106e8,
0xdec80400,
0xf003f0d5,
0x22fff3ee,
0xffe5e8f9,
0xeaf5fefb,
0xffe2c2d0,
0xf3f503f0,
0xe0ebdff0,
0xdfc41f13,
0xd5efe8ef,
0xf3e426f8,
0x0af90812,
0xfdec1d1a,
0x15fcf6fe,
0x04020513,
0x022afdff,
0xd3dc02a9,
0x060ff9e8,
0x0dfbf0d9,
0x03fff2ff,
0x1b0d2118,
0x25f6fa0e,
0xd9d0f20b,
0x1716fcf5,
0xfbf71210,
0xd71eea19,
0x08f022f6,
0xfa0cf7e7,
0xf3d7f71f,
0x16f9e802,
0xe5f2f70a,
0x0009fef0,
0xfbf6ff13,
0xfff209fb,
0xf2fd00f8,
0xfa05f900,
0x14f6100d,
0x030b071a,
0x08cff7fe,
0xe0caec13,
0x04fe3811,
0xe9e608f1,
0x0002e1db,
0xfafc0d03,
0x10f3111c,
0xe60d19e6,
0x10f6d223,
0x06ec20e8,
0xe7ff02fc,
0x0d11ff11,
0xf808f9ff,
0x0aedf602,
0x03150600,
0x1414f207,
0x0a0814ea,
0xbc07fcef,
0x09f7deeb,
0xedc4b0c7,
0x07d1df08,
0xf9e70212,
0x0e10edea,
0xedf3fff9,
0x10e8f9f5,
0xd00418ff,
0x2f1cffe2,
0x2223e800,
0xd7f11316,
0x0a152214,
0x06f6eb0e,
0xe2cf03fb,
0xc617fa1a,
0x0e0637e1,
0xde0501ff,
0xeff4e917,
0xf7e8e404,
0xfef4cec8,
0x20e90100,
0x26fce10b,
0x1306d8e2,
0x1a0e000a,
0xe4081327,
0xf3f5f30a,
0x070922ee,
0xce2a3814,
0xf81c0ec0,
0xe6e6fbd4,
0x14ff19e6,
0xf324eadb,
0x05fecb17,
0xe8e302f2,
0xec1bfdf3,
0x10300ef5,
0xf9eaf3ea,
0x0c03edf4,
0xe7fce4f4,
0x0d06e7e1,
0x20f90ce5,
0x0d0dfef8,
0xf9f6f1ef,
0x0ef2040a,
0xfcfa1c0b,
0xfa0e13e8,
0xe90e0c0a,
0xf81aedd8,
0xf5d5eeeb,
0xdde7131c,
0xf5eeebf3,
0x1012f1fe,
0x04fbdd14,
0xfafaf429,
0xedebeefa,
0xf4f6070c,
0x0106060a,
0x0f090b13,
0x1a0a0cdd,
0xfee9effa,
0x08160317,
0x09fa0326,
0x02f4dade,
0xf30afdf7,
0xf4ecf7f0,
0xfbf6fe02,
0xf60419fb,
0xf2f4f4f5,
0x261cedff,
0x0be8180a,
0x10131308,
0x06fbe90b,
0xf912f01f,
0x1e19eded,
0xfd060ff5,
0xf7fcf4f8,
0xf9f7fcfa,
0xfb0dfd0f,
0xffeef105,
0x010af8ed,
0x19f80408,
0x02190301,
0x0b10f102,
0xe6fdd5e9,
0x0ff5d9dc,
0xee02dd03,
0x080e0dfd,
0x001bfee3,
0x0c01e70c,
0xf9f80bf2,
0x1605f2f6,
0xecfcfbf9,
0xe907f429,
0x0ffb05ee,
0xeff504ff,
0xfcf404ff,
0xf1f30bef,
0xfef90bf6,
0x0402080c,
0x00e009f1,
0xdc18f9f4,
0xf009f7fd,
0xe50a13f2,
0x01f2d7ae,
0xf2eaeff5,
0xee0a09fa,
0x2205e7f4,
0xd706fb0f,
0xf8ffff23,
0xe8fb04f3,
0x0a000605,
0xfa0deef5,
0x16ff10f3,
0x00e5fb12,
0x05ebf0fd,
0x03e9d514,
0x2b04fbef,
0xf70013f5,
0xe7ef06f6,
0x0d021be6,
0xf31ffb08,
0xf907ede7,
0xf7f8f703,
0xf5021809,
0x0def08e9,
0xf1f7f807,
0x1adeedfa,
0x0ef4fe18,
0x11f02720,
0xf5100318,
0xdf030be1,
0xfefc1bed,
0xe508fccf,
0x0dfff1f4,
0x240af8ea,
0x08e0e910,
0xe1ee11fa,
0x23160218,
0x1af1fa02,
0xfcff12f6,
0xf314f1f8,
0x26f204e9,
0xf7050617,
0xf002f802,
0xf9deefe6,
0xf9f1fbee,
0xf0e0f5f1,
0xebece7f0,
0x09f9f9ff,
0xfbf8faf2,
0xdbf7edf0,
0xe40401f6,
0xedfb21fc,
0xdbeceede,
0xf6e5f5e4,
0xf21fe7f2,
0xfafb0f00,
0x06131cf0,
0xe51303f0,
0x0c07f007,
0x15fa02f5,
0xeefeeb0e,
0xffe4f3f9,
0xefeaf0fb,
0xe7f401f3,
0xf7fbf8e6,
0xf4e7f1fd,
0xe8dce9e8,
0x08f4f4f5,
0xfaedfeea,
0xf6fdff18,
0xeff20523,
0xfc1b1efd,
0x1109fef2,
0x02feea0a,
0x090d0b04,
0xeef3eded,
0xfe07f505,
0xf3080ff5,
0xfafc06fc,
0x02fcfaf9,
0xecf00c15,
0x110f14e9,
0x130af3df,
0x08e7fb18,
0xec001e20,
0xfaecf604,
0x1c16e604,
0x0bf5f716,
0x13e406fd,
0xf9fcf81b,
0x17fe1f12,
0xf8091c08,
0xfafb06ed,
0x0d090a01,
0x12fef509,
0x10fd03f5,
0xf9fd0100,
0xf9ed151f,
0xeaf809ec,
0xe1f7fdec,
0xfcf20502,
0xf0e5d8dc,
0xfef4f60f,
0xfff7fc01,
0xead6f6f4,
0x03f401f2,
0x0808fcf1,
0xe712f6f1,
0x011112f7,
0xebfeede1,
0xfef216e9,
0xe3060f09,
0xf014ede7,
0x02f2fa05,
0x03fc0110,
0xeeeb10f9,
0xe010000b,
0xeff2f7dd,
0xed02f3e4,
0x04f7e5d3,
0xdade0003,
0xf007e4f9,
0xe7e70812,
0xe6090fef,
0xf101f30a,
0xf7f2f102,
0x08e9fefc,
0xd408f500,
0x01f205ed,
0xfb0bfbe7,
0x0b0f2f08,
0x0a1f03f2,
0x02f0ecf0,
0x19f7ec02,
0x01fc17f7,
0xec190110,
0x01f502ff,
0xfaf507f3,
0xf9f4fb00,
0x02f8fe00,
0x06fe02fd,
0xf7f5ff00,
0x01f8fb06,
0xfc0702f9,
0xf8f4f3fc,
0xf8fffbff,
0xfdf50200,
0xfd0206f6,
0xfef5f903,
0xfeff00f9,
0xfef8fa01,
0x0304f6f6,
0xfcfa0405,
0xf6f8fdff,
0xf80300f7,
0xfe02ff01,
0xfcfef9fb,
0x00fbf506,
0x02fef9ff,
0x0605fefa,
0xfbf50205,
0xfbfcfbfb,
0x00f4fdf8,
0x0305f9fa,
0x01f7f701,
0x01fe01f8,
0xfd02f4fe,
0xfefd00fe,
0xfbfd04f9,
0xfa04fc02,
0xfd05fd01,
0xfffffffe,
0xfd05fbf4,
0x01f8f3fc,
0xfcfb01fc,
0x01f7f9fe,
0xfcfbf9fd,
0x04fbf8fb,
0xf9fc00fb,
0xf8f902f6,
0xf9fbfcf7,
0x0001fcf7,
0xfefff801,
0x00fb00f8,
0xf9f9f7fe,
0x00f3f6ff,
0xfa04fffd,
0x04fb0303,
0xf3fefef7,
0xfefffefb,
0xf8fefef6,
0xfbfbf300,
0x03fdfaf7,
0x000502f9,
0xfffc02f7,
0xfcfc01f6,
0xfef9f6f4,
0xfbf6ffff,
0xfafe0703,
0x01fefa06,
0xfe03f8fc,
0xf8fbf8f6,
0xfa01fafe,
0x00fa0001,
0xfaf6f5f3,
0xf80106fb,
0xf5f4fff7,
0xfdf7fbf9,
0x0204f7f9,
0xfcf803f6,
0xfc060605,
0xfc01fa03,
0x06fe0103,
0x02fbfbf8,
0xfe01fa02,
0xf8fff9f7,
0xf900ffff,
0xfcf4ff01,
0xfff9fbfb,
0xf9fbfefd,
0xfc01fffe,
0xfa0201fe,
0xf5fdfffd,
0xf40207f9,
0xfe0403f9,
0xfdf60201,
0xf8faf7fd,
0x00ff00fa,
0xf7fefafd,
0xf5fffcf8,
0xfefffefd,
0xf9f8f8f8,
0xff02f6f9,
0xfaf8fffb,
0x0102f402,
0xf5020400,
0x0005f8fa,
0xf7fcfdfa,
0xfcfe03f8,
0x05fefdf6,
0x0104faf7,
0xf80100fa,
0xf4f80101,
0xfe05faf6,
0x04fef705,
0xfbfdf9fa,
0xfaf5fbfd,
0xf8f8fcff,
0xfcfef4ff,
0xfbfefaf4,
0x04fef3f8,
0xfdfc0503,
0x0501f7f3,
0x00fcfdfd,
0xff0403f8,
0x06f902fa,
0xfe02f4fc,
0x04fdfaf9,
0xf9f90102,
0x0000ff07,
0x00020005,
0xf8fef9fc,
0xf7fef801,
0xf8f6faf8,
0xf9f4fafa,
0xf3f602ff,
0xfcf7f2fc,
0xfcf6fcfa,
0xfcfcfaf3,
0xfbfef5f9,
0xfefdfbff,
0xf701fb04,
0xfbf7f505,
0x02f905fe,
0x010004fe,
0xf90201fc,
0xf9f7fcfb,
0xfefbf900,
0x0205fafe,
0xfa0602fe,
0xfbfaf4fd,
0x06ff0005,
0xfcfa01fd,
0x0600fbf8,
0xfffcfcf9,
0xfff3f405,
0x04f7fafa,
0xfb01f7fc,
0xfc0502fb,
0xfe04fd01,
0x03fffafc,
0xf6f9fd02,
0x05fcffff,
0xfa04fdff,
0xfcf701fd,
0xf7fd03fc,
0xfefdf901,
0xfdfe0501,
0xf5f5fffa,
0xf8fc06fc,
0xf8050405,
0xf7fff8fe,
0xf9f9fdf5,
0x04fffffe,
0xfffefaf5,
0x03fff8fc,
0xfdf80004,
0xfbfefbfe,
0xfafdf804,
0x03fdfcfa,
0x05fff900,
0xfa02fa00,
0x00fefaf9,
0xfff7f6fe,
0x03fff8fd,
0xf8f5f5fd,
0xf8fe01fe,
0x04fa0604,
0x00f8fdfb,
0x0306f5f9,
0xfdf7fefc,
0xf907fcfb,
0xf5f9fffd,
0xf8050102,
0xfb050201,
0xfaf9f6fb,
0x04f80002,
0xf7fc07fa,
0x02f70302,
0xf301fb00,
0xfdfefaf9,
0xfcfcfef8,
0xfefffe04,
0xfd0101fa,
0xf4f80304,
0xf7f402fe,
0xd5e9000f,
0xfbfb0ff6,
0x0504ffe8,
0x19eae503,
0xe9e0f81f,
0xc9f81a04,
0x1d1803f4,
0xdde0e324,
0x0e03f7ed,
0x2c13faf1,
0xefcee00e,
0xe3ded40d,
0x0812b4e2,
0x0e0605fc,
0x05faec07,
0xc0d508ff,
0xc1ceefd8,
0xabb4f0d0,
0x12d0e4de,
0x05ff0709,
0xf819ed0b,
0x23fa0c00,
0xf712e9f9,
0xd200f5ed,
0x360b1af5,
0x070605ed,
0x0c0e0d06,
0xf7e912f9,
0xfaf6eff7,
0xdcf50913,
0x1e08eae3,
0xfa152ff8,
0xf621011d,
0x07f90cd7,
0x02fae1e2,
0xf4f7ee1e,
0xf6d60df4,
0xebf81efe,
0x06f003fb,
0xf5faf808,
0xf0e5fef7,
0xfdf0ede8,
0xf7f40705,
0x12f60015,
0xfff22613,
0x10e1e3e2,
0xc2b7cf35,
0xcdf624fc,
0x080bccdf,
0x1be9a6e9,
0xf7d5fa07,
0xe101021a,
0x05080f17,
0x10ea0bf9,
0xdffdf420,
0xf5d42a14,
0x08fb0623,
0x0912ff10,
0x09f9f205,
0x05090208,
0x06001cf8,
0xec270400,
0xde0d01f2,
0x08f3f7ee,
0xf3c4efd5,
0xcfc0e722,
0xebb30901,
0xdd0dc7af,
0xfeffdce1,
0x120e020a,
0xf1f30709,
0x04310aed,
0x190de9f6,
0xd105131a,
0x090b0716,
0xfefe0407,
0xdebee9eb,
0xc8040ae4,
0x0bf3e3fa,
0xfae7f1eb,
0x03ece610,
0xf8f5f904,
0x0b04faf2,
0xfbe2f2e9,
0x100b0202,
0x0efedddd,
0x1f0fe1f8,
0xce03040f,
0x000a0ffe,
0x0b10faf8,
0x091c2bf6,
0xfe3907fa,
0xe4daefe7,
0x1e0d0bf9,
0xfdeaf2fe,
0xfbe5e908,
0xe8050ce1,
0x1523f9f4,
0x1215fae1,
0x04d3a8cc,
0x0814e5e8,
0xefe7ea0d,
0x100efcef,
0x212a15c1,
0x4d48fdf1,
0x4929f9e3,
0xc8082425,
0x190defd3,
0x00fb1b1d,
0xd8cccf01,
0xfa1302f5,
0xfb06fd07,
0x001b0edb,
0x05f2f204,
0x03d5e6f2,
0xe2131d07,
0x1c14e70c,
0xd4f8fef7,
0xf207e0d6,
0x070ff710,
0x1800030b,
0x17112517,
0x0bfc08f9,
0xf6fee908,
0xfd07e9ef,
0x0a0f1b0d,
0xe0f711ee,
0x0c04decd,
0x29180ffc,
0x24261425,
0xe2f10a07,
0x0a03f9e7,
0x29120104,
0x0c0f2eff,
0xff1a2436,
0xe1e0f3d6,
0x0317f8de,
0x05fbefdf,
0xeafdf801,
0xecf3ff03,
0xf6080b0d,
0x0d070009,
0xedec06f4,
0xf71200e7,
0x12f5dbdf,
0x0c1ef606,
0x211d091b,
0x06e0fcdd,
0xe6f4d2ec,
0xdbdaff13,
0x0a2302fe,
0x15180205,
0x13091f1d,
0x0c102300,
0x1409ede3,
0x3125f6d1,
0x02e50017,
0xfa19f4fb,
0x0b0bf1f6,
0x0808f9f4,
0x16d8121c,
0xfef0051c,
0xecf8151b,
0x0e1df8e2,
0xe70f0621,
0xd9eee5cc,
0xf1f207f6,
0x171dd1d3,
0x23e9def4,
0xc5fd1afa,
0x161df609,
0xeaeef0da,
0x19faf51b,
0x1d0de3f4,
0x2dead618,
0xf9f9f309,
0x0f1319e4,
0x00030004,
0xf7eefdff,
0x09f3e40a,
0xf7f01c2e,
0xf90709f8,
0xfafbdff2,
0x0de5e5f4,
0xfbf91b05,
0xf126241c,
0xbfd0e926,
0x0a071cdc,
0x111af600,
0xf509f406,
0x15f1e919,
0x21d1f2eb,
0x27e5eb09,
0xf7fdd721,
0x12030102,
0x17070c0d,
0x0a1e1f0e,
0xfddd0125,
0xecf0d6d9,
0xf5e80f1a,
0xe9cc0119,
0xebdf16d7,
0x031af2f1,
0xfce2eafe,
0xeff60520,
0xfdeef4ec,
0x070209db,
0x05f5ee07,
0xb4e5f1f2,
0xea0f03f9,
0x0003d1b0,
0xfedad5f1,
0x0c0f2619,
0xe406e5f4,
0x2a17fff7,
0x090cf3be,
0x0dfac217,
0x1eecd909,
0x12c1f015,
0xcff40c01,
0x1139151d,
0x041defec,
0x0402d4ff,
0xdfeceffd,
0xe61000f6,
0xf2f1e0f9,
0xf9f300f9,
0xf8ebe004,
0xe81c1103,
0x190ffafc,
0x0d02130f,
0x0d0c090b,
0x1225f91a,
0x06f4f42c,
0xfcdce3e6,
0xfaf8fe0c,
0xe4dd09e2,
0xecf3f8de,
0xf6fc0302,
0x06faf0ef,
0x09fcf5fa,
0x1c0307f6,
0x08fb0212,
0xf9fe0707,
0xef0d4f16,
0x1013220e,
0xe917fcee,
0x0a14c3dc,
0xd70ccef8,
0x1700e7c9,
0xecee1427,
0xf2041601,
0x080efde1,
0xfbeed0db,
0xebf6da01,
0xbbb803ef,
0x010c19d5,
0xfb100a01,
0x15dfff02,
0xe8f3f90b,
0xdffb011d,
0xeb0002f7,
0xf5d504fc,
0xb90d09f5,
0xf507ffee,
0xe4f804b9,
0xeceac3b0,
0xfafb04fb,
0xe41d1d15,
0x28f4e5ec,
0xfbe5cde5,
0xdac2de22,
0xe1f415f9,
0x1ffd02f1,
0xdaf82619,
0x1127270e,
0x13210a07,
0x25fcfc14,
0xe4e4d821,
0x15f6f100,
0x00f8dfd7,
0xdbc8e80b,
0xcbc8f4fe,
0x000400e2,
0xe1f3f3eb,
0x1d0a090c,
0x0f130716,
0xfd10f91b,
0x19f407f7,
0x07d0f8fd,
0xe5c2d9ff,
0xe7e3eb25,
0xe90817f2,
0xfce1e1d7,
0x02fe1514,
0xe51818fb,
0x0ceafddf,
0xe5edd3d9,
0xded3e80a,
0xfce9e6d0,
0xf702faff,
0xff00fafc,
0xfe0903f5,
0xf3f7f4fd,
0xf8fbf2fa,
0xf8fcf0f8,
0xf9f7fbfa,
0xfdf400fd,
0x03f1f8ef,
0xfff9fbf5,
0x01f60507,
0x0001fd05,
0xf402f4fb,
0xfffff7fa,
0x02fcfef4,
0xf7faf8f1,
0x0005fafd,
0xfcf502f7,
0x00faf601,
0x05010103,
0x00fdfb03,
0x0bfc00f4,
0x05fdfbfd,
0xfb03fafb,
0xfffcf8f9,
0x0400faf2,
0xfaf503fb,
0xf9000102,
0xf7f9f9fe,
0xf8fefefe,
0x0000fd06,
0xff01f7f9,
0x0afefdf5,
0xff010804,
0xfc01fd06,
0xf5fcfefd,
0x01f7fef3,
0xf101fa00,
0x0502f9f8,
0xfdfdfbf8,
0xfa01fa06,
0xf6fdf6fa,
0x01fe0100,
0xfe06f9f9,
0xf505fbfc,
0xfa02f7fd,
0x0cfffaf5,
0x01fbf5f9,
0xf7f9fcf7,
0xfef5f9fc,
0xfd02fbfc,
0xfdfdf803,
0x06f8fa03,
0xfafe01fc,
0xf5fcf706,
0x05f0fafe,
0xff0102f4,
0x02fff7fd,
0x0af4f4fe,
0xf8fdfd06,
0xf1f2fafb,
0xfbfd00f2,
0xf1fefa03,
0xf6f703f7,
0xf6ff00fc,
0x0100fbf7,
0x01fd0004,
0xf8fcfbf6,
0xf4f6f6f3,
0xf7fefc00,
0xf4f200f6,
0xfcfef2fa,
0x02f4fb07,
0xfff801fd,
0xfc00f8f6,
0xf9f70302,
0xfef7f6f4,
0x040200fc,
0xfbf7f2fd,
0xf7f500fd,
0xf7fb00f5,
0x02f6f6fe,
0xf906fcff,
0xf603fefe,
0xfef9fdfc,
0xf9fcf4fd,
0xfdff0800,
0x09f6f7fd,
0x05fb02f6,
0xf800f803,
0x02f6fb01,
0xf5fff2f9,
0x03fef8f4,
0xfcfafb04,
0x01f5fafb,
0x08fbfcfc,
0x07fbf6fa,
0xf7fcf501,
0xfa06f6f5,
0xf4f8f6fc,
0xff01f602,
0xf9fcfc01,
0x02fffbfb,
0x00fff902,
0xf8fd00f8,
0xfa02ff07,
0x04fffaf8,
0xfaf6ff03,
0xf9f70003,
0xfdfa04fa,
0xfcfefcf9,
0x01f8faff,
0xff0506ff,
0xf701f7f8,
0x0406fafe,
0x03f800ff,
0xf903f704,
0xfbfbfaff,
0xf90001fa,
0xfa00faff,
0xfa060107,
0xfaf601f9,
0x02faf5fb,
0xfcf7f602,
0xf9fe0703,
0xf5fbf7fc,
0xf8f801fd,
0x0406fefc,
0xfd02fef4,
0x05fafb00,
0xf8f5f600,
0xfdfa02fc,
0x00ff01f9,
0xfa0205fe,
0x00fd0300,
0xf80504fe,
0x05fe03fb,
0xfbf6f7fc,
0xfefef3fe,
0x0500fefa,
0xfaf7fd00,
0xfcf700fe,
0xf8fffffc,
0xfbfef8fc,
0x02fc0204,
0x010200f8,
0x06fa0400,
0xfafdfbfe,
0xfb00fe02,
0x06fef800,
0xfff7fefd,
0xfa0103fc,
0xf9f806f6,
0xf803fcfb,
0xfaf9fff6,
0xfe05fb04,
0x02ff0302,
0xf7feff04,
0xfcf6f902,
0x01f8fc02,
0xfe02fc05,
0xf8f6fbf8,
0xfef4faf8,
0x0003f301,
0xfcf9fcfe,
0xfefef703,
0xfffc0202,
0xf500f4f8,
0x00fa00f7,
0x00fd01ff,
0x000605fa,
0xfb04fe00,
0xf904f9fa,
0xf700f9f7,
0xfcf5fb02,
0x06fcf7ff,
0xfffafb04,
0x00fe04fe,
0xfafc01fa,
0x00f6f5fc,
0x03f8f701,
0xfdf804f7,
0xf9fdfaf4,
0x04f90202,
0xff07fa00,
0xf7f30002,
0x0000fc06,
0xfbf7f6f9,
0x02fef700,
0x03fd02fe,
0xf8fffa06,
0xfcfdf6f8,
0xf7f8fef9,
0x0300f9ff,
0xfef9fefa,
0xfcf9f8f7,
0xfbf7f5f8,
0xfbfffffe,
0x00ff0503,
0xfef80402,
0x18f5ed15,
0xd9f0180b,
0x01fcf708,
0xf1f517ed,
0x100908e3,
0x1020deec,
0xecd2ec19,
0xebebe2f9,
0xfb0bf7df,
0xebe5f70c,
0x00f5e8e7,
0xeff8f1fc,
0x13130bf9,
0xfff5f201,
0xf2d8f314,
0x010707fa,
0xfc060e03,
0xf4d305e6,
0xe9fcef0a,
0xf8e8ece3,
0xe6f0effa,
0x03e404f9,
0xe8e410e5,
0xf7fce1e0,
0x03ef0703,
0xeecaee0e,
0xffd900f4,
0xff16f4fd,
0x0afeea09,
0xfc07f8eb,
0xeeecdce6,
0x04fb071f,
0xeb01f90a,
0x07fe111d,
0xfd14f0ec,
0x1909fbfd,
0x0cfd02ea,
0xfc12eae8,
0xf9fcfdea,
0xf9fdf604,
0xfe100507,
0x0c08f5f4,
0xf3fa00fc,
0x0c01e5f2,
0x07e9e6ec,
0x1f0207f1,
0xf307fa07,
0x020cedfe,
0x1fecf3fc,
0xddeaf40d,
0x2d2202e9,
0x20f509ed,
0x00ff0115,
0xfcf2fe07,
0x01f601ce,
0x091c0a09,
0xf7fe040a,
0x0007f4fd,
0x0d11f7e9,
0x050707fe,
0xfdf9f6fb,
0x0fef04eb,
0x0702fcf9,
0x0adce8e7,
0xfefa0202,
0x030c0b04,
0xefe8e8ff,
0xe7e7fefb,
0x1ce3f6e4,
0xe10c19f8,
0xf7f50817,
0x063623e6,
0xfff1f00b,
0xfc08150c,
0x2413e2fc,
0xf0f3e6f1,
0xeff6f6e8,
0x0c142701,
0x11080dfd,
0xecfa08fa,
0xf2eff61c,
0xe8f920f7,
0x1b1d09f9,
0x10120016,
0x23fef6eb,
0xebf6fc0a,
0x16f4ddec,
0xeeecfeff,
0xf0ebf1e6,
0xebee05f9,
0xefefe808,
0xe9f7eae2,
0x0bf8edf2,
0xee220fee,
0x07000705,
0xf4ff1200,
0xefee0215,
0xf71a0df0,
0x1b03e027,
0x0208110a,
0xf2fc0cfc,
0x1a160108,
0xf2d3bb0c,
0xc1f1e50b,
0xf0bdccc3,
0xf2d2dbff,
0x2a1c0bfb,
0x27fd1429,
0x0a271019,
0x391405f3,
0x05130721,
0x2a2a22d9,
0x0702ea21,
0xf70d0c04,
0x090010fb,
0x1521f413,
0x0f213d15,
0x05101320,
0xdcf51402,
0x200bf4f4,
0xc5f704e5,
0xeed6edd9,
0x09ddf9e9,
0xea08f9ef,
0x0c1711ee,
0x0df401f7,
0x1302ec47,
0x00f824fd,
0x05d2e3fc,
0xfc0c100f,
0x01020704,
0xddd6c905,
0xf8e10df9,
0xed02f7f6,
0xebf4e61c,
0x00fb01f0,
0x0f06fde9,
0x0aff051b,
0xe80bf7ff,
0x1912fbee,
0x05f6fbf2,
0xf2101ff3,
0x05080005,
0xf3e9f3fb,
0x0f18ee0d,
0x0b10e106,
0xfde01303,
0xfce7d2fd,
0x36d5fc13,
0x090c241f,
0xeef71ee6,
0xf708e8ff,
0x03e3c2ec,
0xd1e2eb1a,
0xfcfe21d9,
0xf6e2b218,
0x04f5eb00,
0x0d07030e,
0xe9fa130e,
0xf0fd03f8,
0xf0e9e9da,
0x00d7ec00,
0x15f7ffef,
0x00272516,
0x3b24fffb,
0x20020c07,
0x0c0b0512,
0x0f0ac6ed,
0x14f7fc08,
0xe8f4e323,
0xafcb1cfc,
0xf5d5efde,
0x0609ec0d,
0x09fc0511,
0x0f03eb03,
0x1c0205fb,
0xf8ff071f,
0x00edfeed,
0xfbc1da2e,
0xd6d51715,
0x0a0d0700,
0x0617f8f6,
0xedfe1a05,
0xf02df9f4,
0xe30dfd12,
0x00050506,
0xecf2e2f7,
0xe6e7c4ec,
0xf7f6f2e2,
0xbcc0d506,
0xe3e6e1eb,
0x00e5f0e2,
0x1d0d141a,
0xf127171d,
0xcec7fbf8,
0xfd13f600,
0x18f1f9db,
0x17f3091a,
0xcbeb2a1e,
0xe431f5d8,
0xfefefdfe,
0x05f801f7,
0xf7f30005,
0xfdf3fffd,
0xfa0505f6,
0x01fe04fe,
0x04f903fc,
0xfcfaf9fb,
0xfd04f2f4,
0xf903fafd,
0xfbfe00f5,
0xfd04fffa,
0xf9f8fff7,
0x01faf802,
0x040502f9,
0xf90505fd,
0x01f9fafc,
0x06fb03fa,
0xfcfcfdfd,
0x01faf9f8,
0xf9fc04f8,
0xfc01f9f9,
0xf7f1f9f7,
0xfcfbf7fc,
0x00f7fdfd,
0xf6fdf9ff,
0xfc04fffa,
0xfefe03f8,
0xf705fc01,
0xfe03f9fd,
0xf9fa02fe,
0xfb04f3ff,
0x0402fdf9,
0x0103f902,
0xfff9f4fd,
0xfb0002fd,
0xfaf70000,
0xf90200fd,
0x03030205,
0xf8fe0003,
0xfa0301fd,
0x06fd0302,
0x02f90205,
0xf9fffd01,
0xfe01fa05,
0xfafaff04,
0xfe000004,
0xf8f9fbfd,
0x01f8fa00,
0xf7f8fa02,
0xff04fcf6,
0xf9faf503,
0xf401faf8,
0xff00faf8,
0xf6f3f403,
0xf9fb0601,
0xfd060501,
0xf9f80503,
0xfcfd0000,
0x0003fcf5,
0xfcf603f8,
0x03f706fa,
0xfefef902,
0xff05fef6,
0xf7fbfa07,
0x03fefdf7,
0x0400fc03,
0xfafafdfe,
0x0305fa05,
0x02f601f9,
0x0204fbfd,
0xfafff7fa,
0xfbfaf5fc,
0xfe0503fb,
0x00f9f9f9,
0xfd060603,
0xfdfffcfe,
0x00f90106,
0x06fafb06,
0xf90100fe,
0x07f904fa,
0xf803fc03,
0xfc00f8fc,
0xf7f7fbfa,
0xfefaf6f6,
0xfc02fd03,
0xfefc0305,
0xf4fff4fb,
0xfbfef2fd,
0xf5fff8fb,
0xf8fc00f3,
0xfb00f4f4,
0xf9fafbf6,
0xfaf4fefb,
0xf8fdf9fd,
0xfdf7f9fc,
0xf6fcf7fe,
0xf70104ff,
0x00f9fdf6,
0xfef402f7,
0x2007dfec,
0xf1f4cd20,
0x05f30e05,
0x0f07f00b,
0x17fae0f7,
0x04e8d101,
0x080cff12,
0xc7fffffb,
0xf1fa01ea,
0x0ad80de8,
0x0af5f70f,
0x15152a1b,
0xe1f4faf9,
0x2b0fe6e8,
0xe2caf313,
0x182f2d18,
0x1512130d,
0xe6ff1b0a,
0xda1affc9,
0x10f9fad6,
0xec07021f,
0x0afe2915,
0xf5010b01,
0xe1e8fe0e,
0xfd02f2fe,
0x09dea1d3,
0xfc09ef15,
0x01120ed7,
0x270007ef,
0x04011613,
0xf5cbd4f4,
0xe5d3dcea,
0x21edf106,
0xf60e021d,
0xe810f3ff,
0xeddbfafc,
0xf1fafafb,
0xf2f1d5ec,
0xf0e3f1ec,
0x06e9e7eb,
0xf410090e,
0xfcfa0919,
0xecff23ff,
0x1205fae3,
0x1be5df0e,
0xe3f6ed29,
0x02f30215,
0x010b0be9,
0x0ce3ecf1,
0xe4ec2623,
0x39333b11,
0xfe010a0b,
0xf9f2fe3d,
0xe10207e0,
0x1be2e8f8,
0xfd1af6eb,
0xfdecf11b,
0xdffd05ff,
0xed1e01f9,
0x08080708,
0x05f106fe,
0x00131108,
0xeff516fa,
0x00b8cb05,
0x0b02220b,
0x0cf3f4e1,
0x271615fb,
0x191a0c1c,
0x21e1e7ff,
0x0118f100,
0x01da181c,
0x031e12e7,
0x2afdf3da,
0xf01cf931,
0x20121203,
0xd2fcf4fa,
0xf6dffd06,
0x0205f8ed,
0x22f3fdfc,
0xe703212f,
0xf6ff291f,
0x0e03eb0c,
0xed0001f9,
0x152501e8,
0x1f061716,
0x04f8f518,
0xb1ca0116,
0xe4dc22dc,
0x0c2411d7,
0xfb12f00c,
0x00061e13,
0x0b0121d3,
0xf7fdfddd,
0x02fe1206,
0x1bfc2b1c,
0x15291bf3,
0xf618f015,
0xf4f0120c,
0xfa14f801,
0xfe14110b,
0x0119f3f0,
0xeb07e6fd,
0x01fbe7ec,
0xe7f41a10,
0x0f23ffdd,
0x181812fc,
0xdc00f40c,
0xb2da09c5,
0xe008faf2,
0xf7d8f7eb,
0x0af40311,
0xedee0b1a,
0xe6d11702,
0xf304f9ec,
0xecd7eaf0,
0xdd01f6db,
0xefed15e7,
0xee05efde,
0xff2cffe2,
0x04010508,
0x041bf81b,
0xffc903f7,
0x04d906e9,
0x2a03f5eb,
0xfcfee9f3,
0xeef5e3c3,
0xd4e70312,
0x121b1404,
0xf71e1f0a,
0x0202fcfd,
0xd2bec8dc,
0x2712fbfd,
0x340dfe05,
0x13161310,
0xe805e5f4,
0xf4daf7d8,
0xf72b1206,
0xeeebf015,
0xf300fbf3,
0xfbf70efb,
0xe61c1c11,
0x0a09f9f9,
0xe5ee06f1,
0xf613faec,
0x23fbf6f1,
0xff13efeb,
0xfa01d90f,
0xebf4f3f5,
0x23e507fd,
0xcc163929,
0x1121200d,
0x15130214,
0xf20bfa0a,
0xd00bf3f4,
0x1ce3ffd4,
0xf03710fa,
0xeef4f401,
0xfc0af9fd,
0xfc0c01fa,
0x000df50f,
0xfbdfecfe,
0x070a0a00,
0xc1f8feff,
0xf6cfd2a2,
0xef01d6d9,
0x00eb07f6,
0xdaf21316,
0xdae8190d,
0x0ef90bd1,
0xe6d3b6e5,
0x00e5ee0a,
0x191a0609,
0x14ebeaf7,
0xeaf5e2fd,
0x1bf2f6f9,
0xfaf2eae6,
0xcfd90ee1,
0xf201e5ed,
0x14201ec5,
0x0e20f007,
0xe3f0f708,
0xd5bfd0ca,
0x2aff01e3,
0x0cff192b,
0xdf012720,
0xe601f7e3,
0xb8b6e2fd,
0x07f72201,
0x231edefe,
0xeef4e211,
0xdd0de61e,
0x1cfafeda,
0x0813cbf9,
0xfbeed4fe,
0xf9db13fe,
0xdcfd03fb,
0xd6e30d02,
0xf6fef9c4,
0x0b0ed424,
0x0a05240b,
0x02fd02fc,
0xf8fffc02,
0xf4faf9f7,
0xfaf5fef7,
0x05fefdfa,
0xfbfef806,
0x00ff0302,
0x04f8f9fd,
0xfdfd01f5,
0xfafffdff,
0xf802f3f8,
0xfff4ff01,
0xf502f8f7,
0xfb02fefc,
0x05fbfa01,
0xf6f8feff,
0xfbfc0102,
0x05010100,
0x02fe04fe,
0x01f304fe,
0xf8f7fdf4,
0xf9020102,
0x07fefdff,
0xfaff0607,
0x02fefdf9,
0xfbf5f804,
0x01fffaf4,
0xf3fef8ff,
0x05fdfff5,
0xfdf5f6ff,
0xf3fef9f3,
0xffff01f8,
0xfbfef9fb,
0x06fe00f9,
0xfb06f8fe,
0xfff9fb03,
0xfd0503f9,
0xfbfef5fc,
0xfbfcf7fb,
0xfd06f7fa,
0xfefefaf5,
0xf901fc00,
0xf5fd00fa,
0x04ff00f5,
0xfff7f8fb,
0xf7fffb05,
0xf7f70103,
0x000400fd,
0x0100fff7,
0xfafffafb,
0xfafc0104,
0x02000202,
0xfaf9fff7,
0x05ff02fc,
0x05fbf9fe,
0x02f9f5fe,
0x0205fffc,
0xf4f701fd,
0xfff9f900,
0x01010200,
0xf5fffd01,
0xf6f9fdff,
0x060204f4,
0x04fff8f9,
0x02030102,
0xf9f7f6f6,
0xfdf7fefc,
0xfaf8f3fd,
0xf8f6fcfe,
0x04fdf8fc,
0xf9fdf903,
0x01fb00f9,
0xfd01fff9,
0x00fdfdf6,
0x01f9f9f7,
0xfcfffb00,
0x0002f8fc,
0xf7f8ff00,
0x00fbfc03,
0xfdfefdfe,
0xf600fdfa,
0xf800fefd,
0xfbff0000,
0xfbfdf9fc,
0xfc0101ff,
0xfdfa03ff,
0xf402f3fb,
0x020302f8,
0x040001f7,
0xfaf905f9,
0xfff7fd01,
0x0101f806,
0xfbfe0205,
0x00fc01fb,
0xfefbfff6,
0x04f9faff,
0xf7fef901,
0x03fc0103,
0xfa05f900,
0xf303fafe,
0xffeae118,
0x02e7f51e,
0xd8e7ffff,
0xa6f9121f,
0xfae70eb2,
0xe60de6eb,
0x1a14fd35,
0x1f1ab503,
0x21bbe50c,
0xdefbfe1f,
0x071802eb,
0x0f2a18df,
0xfefdbdfb,
0xfaee00fd,
0xf5e0e2ef,
0xf8e0efe0,
0xd90620e8,
0x2b39e6e4,
0xf2d7fd0b,
0xdde1f1fd,
0x0ac9cfea,
0xdcdabb1a,
0xdbb805f6,
0x21ede8d1,
0x0af80036,
0xe5011a13,
0xf2fa08c8,
0xf8d701f7,
0xded80313,
0xd0d0fbf7,
0xe8f8f0ef,
0xe6f3f8f3,
0xefe8f30a,
0xec01fd04,
0x0ff0dcf5,
0x2516dfed,
0x4804f911,
0x0d0b191d,
0xfe06fe04,
0x000bf403,
0x11060ef9,
0xfd0601f7,
0xfe07ecfd,
0x09f1eff6,
0x090ed9f7,
0x1bec0703,
0xfdf51efa,
0xc6d80705,
0x100210f1,
0x1d352527,
0xd8bb9be1,
0x01c7e3eb,
0xe7f1eaed,
0xe3fbc40c,
0xfe071ae9,
0xeffcedfb,
0xf5fbfc03,
0xfdf40efe,
0xfb071305,
0x0d040c01,
0xfdfde1d2,
0x02deea0f,
0x1e270afe,
0xfec7da05,
0xf8d6fd0f,
0x040203fa,
0xfe050007,
0xfa0af619,
0x03f5f3fe,
0xfe101406,
0x2b0ed803,
0xe6e30a0b,
0x0be4faec,
0x09fd0a0b,
0xe9170ff5,
0xecef15fc,
0xfc2007ce,
0xf901fdf2,
0xe31d11dd,
0x05fc0ed0,
0xedf6ebca,
0x0c0419ea,
0xedd4f7ff,
0xf7fd04f9,
0xf7070b19,
0xf2fff4f6,
0xd70504d8,
0xf4eccfbc,
0xecf80d15,
0x0a232700,
0xe7f5dd9b,
0x02e3d1e1,
0x1bf9f80d,
0xfe0a1419,
0x1001aaeb,
0xecddd6f4,
0xe1e30f05,
0xf51cfce1,
0x0cf00911,
0x070504ed,
0x00e3e5fe,
0x0107dc08,
0xfa040023,
0xef100bf9,
0x113222d2,
0x3d4616f1,
0x2d13f824,
0x1508d70e,
0x08f60e1e,
0xdcf7e712,
0x090306de,
0xe71317ef,
0x23010efd,
0x0f0a2322,
0xf615f504,
0x0ff0140a,
0x1af30209,
0xb7dcfcef,
0xf7a0bece,
0xf5f2241b,
0xe1dc190c,
0x180ef80c,
0x10ebfb13,
0x3ff904f8,
0xdefeda1f,
0x10131714,
0x1921f5f5,
0x0eecf61c,
0x08eae808,
0xecf9fc08,
0xb3c5cfdf,
0x1802e2cb,
0x0801c4f6,
0x10f5e4f8,
0x0d1b07f9,
0x11011a19,
0x0e2625f2,
0x18180a04,
0xfbf7fa0d,
0xff050d0b,
0xf8f80203,
0xf0fbf1fa,
0xd3efe2ec,
0xf1f2fdeb,
0x0b25fa0d,
0x1fd3060b,
0x01261612,
0x39f6f80d,
0xf6f40ffd,
0xf2242d05,
0xbad3bfdf,
0x06fce4c7,
0x050cdfcb,
0xf7f20810,
0x200a0ed7,
0x1c4d21ff,
0xefec0f05,
0xff0308f2,
0x06f011f7,
0xfa0de5f9,
0x20f8fa1a,
0x1cf907ff,
0x312f0d19,
0x050df825,
0x34f4f613,
0x061102f5,
0xcef51b09,
0xe20a0722,
0x32ef07e2,
0xf7fbf5f9,
0xfe160218,
0xd4edf901,
0xf2d908fe,
0x07dee5e7,
0xf7d9cde7,
0xfad5f6fb,
0xd7feeefe,
0x1dee17fe,
0xf705251c,
0x0a18e7ef,
0xdff1fb1e,
0x2b111ddb,
0x13fefc1c,
0xebeb04fe,
0xe7e9fc13,
0x00f0fde9,
0xbaaacdfd,
0xe0d6e0c8,
0xe302fd14,
0xfa0e15fe,
0xfdfce4ff,
0x1601cf12,
0x2424fbf9,
0xfae3e605,
0xe0fed4ee,
0x0adeee00,
0x09ebe005,
0xf0eefd0b,
0x06ef02fc,
0x062a122a,
0xf8f6faf9,
0xfafa02fb,
0xfcff0503,
0x0204fbfb,
0x0006fb05,
0xf8060305,
0x02000204,
0xfaf800f8,
0xf800fbfb,
0xf903f8ff,
0xf9f3ffff,
0x02fdfefc,
0x04f8f904,
0xf9f7fa02,
0x06fcfffa,
0x06ff01f9,
0xfaf7f4ff,
0x02fafcfe,
0xfbf505fb,
0xfffaffff,
0xf5f5fdfa,
0x05fb05f3,
0x050600f9,
0xfcfcf800,
0xf9f8fb01,
0x04f7fb00,
0xfefbf602,
0xfff5fef7,
0xf8f9fa01,
0x0300fb00,
0xf3f7fe03,
0xfc06fdfd,
0x04020605,
0x02050005,
0x00f703fd,
0x04010700,
0x03fcfff6,
0x03050100,
0x02f6fefc,
0x03fdfbfe,
0x0401fafa,
0x00060505,
0xfefb0200,
0xfeff03ff,
0xf9020501,
0x0605f806,
0xfbfa04fe,
0x05fc0705,
0x00fbfffa,
0x05fcfcf9,
0x0301fef8,
0x02fdf600,
0xf803fcff,
0xf804fcf8,
0xfcfaf8fd,
0xfa01f9f8,
0xfafafafb,
0x05fe01fc,
0x070200f7,
0xfaf8f8f8,
0xf805fdfc,
0xf90706f9,
0x0701ff02,
0xfa04fe01,
0x0102f8fd,
0x02f8f9fe,
0x0100f8fa,
0xf8faf706,
0xf400f8fb,
0xfb01fe08,
0x01fd05fe,
0xfffef304,
0xfafefbff,
0xf900fef5,
0xfcf3f9fc,
0xfe03f804,
0xfafc01f7,
0xfd0201f6,
0xf4f9ff05,
0x01faf9f9,
0xfaff0205,
0xfbfdfb02,
0xfff900ff,
0x03fbfcff,
0xfdfaf6f6,
0xf304fa06,
0xf703f9f8,
0xf5f900f5,
0xf7fdf8fb,
0xfbf8f7fd,
0xfbf704fd,
0xfcfffbff,
0x00f9fdfc,
0xff04f1fc,
0xf5fff904,
0x02fa02ff,
0xf7f8fef1,
0x02fbf9fb,
0xfdf205f5,
0xf6faf8fd,
0x1ae6ee01,
0xeff601fa,
0x05052136,
0xfe1b020c,
0x073d19da,
0x472b01e2,
0x05cfe805,
0xff01272e,
0x11cef30e,
0xf9f10017,
0x15e2090b,
0xf1040931,
0x0c1c3bea,
0x2df9000d,
0x12343a32,
0xf1ff1d02,
0x0fe1e117,
0xc8d705ec,
0xe0c6d0f8,
0x2b3004e7,
0x02311af3,
0x0b0b1121,
0xf4eaf9eb,
0x23e9fa1f,
0xcffefb0e,
0xf4e0f4f2,
0x0f240a1d,
0xfa01030e,
0xf71a0be4,
0x111af0f3,
0xc6c8c3ce,
0x1500f8ce,
0xf5f6e60f,
0xf61b0b0e,
0xe818191b,
0xfb13151e,
0x001b10e0,
0x0f11f0f4,
0x0df80803,
0xff0d0d04,
0xff02f503,
0xeeeede02,
0xdae4f5ef,
0xcaf5f4dd,
0x061914ce,
0x08fb09fc,
0x2135050d,
0x5d2ff3ef,
0x24f3f612,
0x04fa1314,
0x10213b23,
0x240b3509,
0x05200719,
0x22032118,
0xfaf5f30b,
0x1b221911,
0xeafc0cf6,
0x0be909e8,
0xfcf30af6,
0xfe17ff08,
0x01020e05,
0x12fdf8ef,
0x16170e23,
0x08ffff21,
0x1df60e0c,
0x211f0008,
0xd50817fd,
0xf0f8170a,
0x3af4d4b3,
0xf6f40c13,
0xf5182330,
0x050303f0,
0x09d9f4f7,
0xf0e9e5ee,
0xe8fad8e4,
0x1afdd80b,
0x0b0be5ed,
0x340ef1ef,
0x14fbe642,
0x14f7fa24,
0xded50d1f,
0x1d2621f1,
0xf81bff0a,
0xd5ee290b,
0x1a15f9e4,
0xf0e8f0c0,
0xdcb9c9f7,
0x0405ffe7,
0x1c1ff2e8,
0x0200ed06,
0x0ff6db1e,
0xfff41310,
0x11190800,
0xeacef5fd,
0x021b201c,
0x0cf80df9,
0x33fad201,
0x13e2eb24,
0x05dc1ffb,
0xff33e61c,
0x0d0317e8,
0xffec04e9,
0x1cf1e600,
0xee080000,
0x0d0910f2,
0x05fb03f3,
0x07e4defa,
0xd1d7e812,
0xd1f502ed,
0x080cebe2,
0x0508f2e6,
0xdde9ec02,
0xd9f8f002,
0xd502fef5,
0x1e17f713,
0x04f3e2e0,
0x10fafe00,
0x04f8f102,
0xe904f4ed,
0xf01e01e5,
0x1a0e06e1,
0x12fafffb,
0x060ee50b,
0x02f9f713,
0x05110200,
0xe7ded3c4,
0x0608fef0,
0xe5f4ddfa,
0xe608fbf2,
0x00f6d6e1,
0xe7edeff9,
0x1bec25d9,
0x01f60b0a,
0x0d001608,
0xf80f070a,
0xfc070b10,
0x1b1a23fc,
0x060303e7,
0x0303f6f9,
0x0202fe01,
0xfd02f8fc,
0xfb050106,
0x000005fb,
0xf2ff0206,
0x030a0c06,
0x0309f60d,
0x04ef06de,
0x021df9ff,
0xfa0c08fe,
0xeff0f31a,
0x21322c17,
0xf9ff040b,
0x0cfcf202,
0x0707fc01,
0x02e80d19,
0xf019010e,
0x12ff02f3,
0x18080b10,
0x1520f506,
0xfdf3fb23,
0xfc04fcfe,
0xf7f80cfd,
0xe4e715fe,
0xdc162501,
0xfc0911fa,
0x0df4f107,
0xf8090ce5,
0xf8edfdfd,
0xfaf9fd04,
0x02e9ec0a,
0xeeeb070a,
0x040f0bf1,
0x090412fc,
0xe804dff7,
0xe6ec1bf4,
0xf50d202b,
0x000104e7,
0xfc0af9f3,
0xef000cf9,
0xf6e8fe1c,
0x0bf20cff,
0xecfbe4fb,
0xe1f2f104,
0xeb1ff5d8,
0x03e7eaee,
0x0d0af4fb,
0xeaedfce9,
0xea1211f6,
0xe6def5e9,
0xf2e1e1f5,
0xfbcffcf8,
0x00de1a13,
0x01ed0ff4,
0x09eae805,
0xd9252f11,
0x1a0b0e02,
0x181ffbe9,
0x0d01df00,
0x0dff0e1d,
0xf8ebf912,
0xf8030b1b,
0x060ee70f,
0xf9f400c7,
0x1807cef4,
0x09021cf4,
0xf005121d,
0x0c0a06ee,
0xf5ebe80a,
0x0d03fdfe,
0x211bf8f1,
0x1b0ef6e2,
0xfff9fe1e,
0xead4fa0d,
0x06fae5f0,
0xe80208f3,
0xf0ddf112,
0x05d8e3d4,
0x05f50ff6,
0x03fa0717,
0x0dfdf105,
0xe1f205f0,
0xe7e81414,
0xe7220402,
0xf7e2e2d1,
0x073cf4e5,
0xf9e8e6f5,
0x02efda0f,
0x13fb020f,
0xfb100f09,
0xe1edea0b,
0x0401e4fa,
0xe8ed04f1,
0xd9d701fd,
0xe3fdf1de,
0x18f805cf,
0xfcece91a,
0xe3f7eaea,
0xe6f4d710,
0xf109fbee,
0x0100f000,
0xfcfdf2f4,
0xfef404ea,
0xfe04e8f5,
0xfcfa05f2,
0xecedfc17,
0xf402ed01,
0xebe0ff0d,
0xef0e1223,
0xfc0812f9,
0xe2fdfef8,
0x0df73830,
0x0f2f03f0,
0x09e6e804,
0xf6f8f410,
0x05de05ea,
0xf8f2f11c,
0x0802f824,
0x02f5f6f8,
0xfc01ed06,
0xe9dd030d,
0xedf6f109,
0x140c03fd,
0xddf7ebee,
0xf8f903e3,
0xc6e7decf,
0x240dd0ec,
0x21ecde00,
0xfdfe0a0a,
0x00fce5fb,
0x1c0adeee,
0x02022bf4,
0x1526fdf4,
0x0deef1de,
0xf4faec13,
0xf3f7fd08,
0xff23f7ef,
0x0cf0e405,
0xf30af9f0,
0xf6fe1606,
0xfbfc080c,
0x0d10f70a,
0xf2efebf6,
0x14f3f7e5,
0xe8eefe23,
0xe60d03fc,
0xf002f201,
0x021f2ce9,
0xeb0ffad7,
0xf204e5e6,
0x2004cdff,
0xe0de2d11,
0xe7fc1309,
0xf3ee11f5,
0x1e18eb06,
0xfcee2000,
0x0602ee09,
0xf9e0eed6,
0xf7f9db0f,
0xf40220ee,
0x1d33d2e4,
0xe6ed0716,
0xf00c1e10,
0xf0fc15f5,
0xef1105e5,
0x200e17e7,
0x23f9feef,
0x03161307,
0xceb7efe0,
0xcd151af9,
0xd0fe0ef3,
0x2e09fb16,
0xe2f1082f,
0xff06faf8,
0xeb0e160a,
0xe3f201e9,
0xf00d0ee8,
0xf5f8fcda,
0xebfcf0e8,
0x260bfde6,
0x1ff90417,
0xef010825,
0x05f3ed08,
0xf2ff03f2,
0x02f9dae0,
0x0beef7fa,
0x0cfd07f5,
0xf2000e10,
0x0016fafe,
0xf5282cff,
0xdefbf7fe,
0xe3e5d6f6,
0x301529fb,
0x40222212,
0xdf171711,
0xfc02e6e4,
0xfaf4e3f8,
0xfc120e06,
0xeffadf01,
0x01f700f9,
0xf6f71408,
0xe30f0e0c,
0x080404f0,
0xfee0fae1,
0x1c00f0ed,
0x0fd9e1ff,
0x0521ffe8,
0xf7e1e81c,
0xce011f04,
0xfe1208e0,
0x00ed0104,
0x2c1502fb,
0x091ffefc,
0x13ea2711,
0xd40105f8,
0x0bf6f7e6,
0xfb0805e6,
0xfa000806,
0x0825fdfc,
0x0c0bf6f1,
0x0601f10f,
0xfcfa0203,
0x0d07f60d,
0xb3f009fa,
0xefd5f4e6,
0xe10c11f3,
0x03fe150c,
0xfff31c14,
0xf7f52209,
0xefebd3d9,
0xf9f606eb,
0x0ee3fb00,
0x3140380b,
0x342e17ec,
0xfc0adf04,
0x1cd5e903,
0xd5f2f8db,
0x07c7f2e2,
0xe4fafc08,
0xff0e03ce,
0x1703f4e1,
0xfe1ffb00,
0xe0eaede9,
0x23231bf4,
0x36dff223,
0xfb0c2a23,
0xe5e8f80c,
0xe90c02d9,
0x001d28fb,
0x2012eaf1,
0x2c00e0fb,
0x0c0be909,
0x0b3a1507,
0x0f080ae8,
0xf809d9f1,
0x15dfdc03,
0xd9fc17fa,
0xd5efeefe,
0x001601dc,
0xfe00c818,
0x0b191bf8,
0xd1091d15,
0x080e1504,
0x0515f9ca,
0x3dec1ae8,
0xeaf50207,
0xebf3fd1e,
0xf810fb10,
0xddaaf109,
0xddee05f7,
0xfa12ffe8,
0x120502de,
0x0906ddf9,
0xeacdeaf0,
0xdef504fc,
0xeff404f3,
0xf4e216f9,
0xf602e1e6,
0xfbe518f5,
0x1dfc1a0a,
0xe4c1f41d,
0xebd4f5f9,
0x1bef170c,
0xdf20191d,
0xd0f5f2c2,
0xe81feef9,
0xfa1410ea,
0xfef1ddd3,
0x0aeafaf9,
0x07ef1021,
0xd3d30330,
0x0305fef0,
0x02051112,
0xf70211f1,
0x0cf20ee4,
0x1422f5c9,
0x02cfcd1a,
0xf4ed030a,
0xf1e9f607,
0xf5f3fef6,
0xf8f3f908,
0xf7fc0ef8,
0xfe180efd,
0x020304ef,
0x0d010202,
0xf4fbe202,
0xfbe5f4f8,
0x0cc7f209,
0xda033523,
0xea020af3,
0xfffcd1d9,
0xbedadddf,
0x201ef3fb,
0x1dfc17df,
0xfcf80925,
0xf20b1feb,
0x1206fa13,
0x1406fa08,
0x0b18e7fd,
0x10fcfcf0,
0x070ef40b,
0x110b0b30,
0x04152be1,
0xb6e4d8eb,
0x01e2f5f5,
0xc5d7ffdc,
0x1dff0414,
0x18efe911,
0x0d13fc0d,
0xc10e0c07,
0xfc0306c9,
0xebf7f9d9,
0x2f2b1ef8,
0x1812f9ec,
0xfa101606,
0x1f1f0f11,
0x17f3e916,
0xf0d7f4dd,
0xb3faf207,
0x051122da,
0xf20209bd,
0xe103f018,
0xe3d3b1ec,
0x19f5e5dc,
0x05e3f11c,
0x1d071511,
0x10f4fc13,
0xff0c122a,
0xf70f0b19,
0xe2f9f513,
0x2c14f8d6,
0xef212825,
0xee0a10e4,
0xdadbffe3,
0x1109f2ed,
0x1207addd,
0x0cd9df21,
0xdef51106,
0xf72304fb,
0x10280300,
0x0bf7f600,
0x02f5f8fc,
0xf5fcf706,
0xfa00fcff,
0x05fdfcf7,
0xf8f9f901,
0xfe03fbfa,
0xfbfdfd03,
0xfefe00f6,
0x00fc01f9,
0x03fafdf8,
0xfafffe04,
0xfdf906fd,
0xfd02fdfd,
0xfc06f701,
0x010103fd,
0xfefe05fb,
0x00fffa03,
0xf8f806fd,
0x00fd0000,
0xfe04f6fc,
0xfcf801fe,
0xfcfaf7fa,
0xfff500f1,
0xfdfbfaff,
0xfdfefe04,
0x030503f7,
0x01fa03fc,
0x04fafbf9,
0xfcfffaf7,
0xfd0003fc,
0xfc0201ff,
0xff03fcf6,
0xf7fa00f9,
0xfdfb05fe,
0x0504fdff,
0x03fafc03,
0x00f80403,
0x0505fff6,
0x0403f7f7,
0xfb06fdfa,
0xfafefcfa,
0xf8030604,
0xfc05fb05,
0xf80500f5,
0xf7fc02fc,
0xff03fd06,
0xfc010205,
0xfc030402,
0x0506fafc,
0xfaf7ffff,
0x01fdfbfe,
0xf402faff,
0xfaf8fdf9,
0xfbf7fb01,
0x02fa00fc,
0x06f7f8f9,
0x050501f7,
0xf9faf906,
0x05000606,
0x00fa00fe,
0x05f8f8f6,
0xff02f904,
0x0302faff,
0xfcfd02f8,
0xf704f7ff,
0xfdfcfaf7,
0xf8fcfdf8,
0x03fd00ff,
0x0305f9ff,
0xf5fef901,
0x01f9fcfd,
0xf901f8fd,
0xfdfbfb06,
0xf8f801fd,
0xfcfafaf7,
0x00fb0503,
0x03ff00f8,
0xf9fcfbfa,
0xfa05f802,
0xfff8f903,
0x000605f9,
0x04fb03f8,
0x0500f804,
0x02fa03ff,
0xfdfbfc00,
0x00f9f9f8,
0xf8fffbfb,
0x0504f9ff,
0x04f9fc01,
0xf802fbfd,
0xfbfb00fc,
0xf4fbf9fa,
0xfe070201,
0xf9fbf8f9,
0xfe02ff03,
0x0401fefe,
0xf80302fe,
0xfafafcff,
0x05fefefa,
0xfef802f8,
0xe8ecf814,
0xfdebfefc,
0xe9fcf1e8,
0xee02dff1,
0x03f7f1eb,
0xfbf1fb04,
0x00feef05,
0xfafafbeb,
0xf3fbeef6,
0x22f3dee7,
0x0bfbe6f5,
0xfbe3e80a,
0xf4f7ff07,
0xfcf9eee4,
0x04180b06,
0x0215f9f3,
0x15dff613,
0xf7d226f1,
0xf4060620,
0xf2fbf2fd,
0xfbe7f7fa,
0x0bff10f2,
0x0af21126,
0x0512192f,
0x131f260f,
0xe6f5f80d,
0xdbd702fd,
0xe1e9e4eb,
0x12e8e3d8,
0xf4e3e4ff,
0x0701f3ed,
0x001e360b,
0x0e0b0004,
0x0ef3f5fe,
0xee08ff13,
0x1705101e,
0xf8f812d9,
0x0026fcea,
0x0d020720,
0x0700f401,
0x01f5fc06,
0xf70508f3,
0x02fb01fc,
0xe609030b,
0xe9f21fef,
0xf80627f0,
0x0d271de1,
0x14eedff6,
0xf203de1f,
0x170800fa,
0x040b09fb,
0x0e10070e,
0x160d040d,
0x1bf717fe,
0x0923f423,
0xfefb131d,
0xfe1705fd,
0xfc010400,
0x240def0c,
0x27f0fb04,
0xea08fc28,
0xec080afe,
0x1100eff3,
0xf0ff1b13,
0x15f11a08,
0x0e0ffbf2,
0x2c09e818,
0xf8eb07f3,
0xfefdf3f9,
0x0c0cfa07,
0x3301d90f,
0xeeed110f,
0xf6241605,
0xfafa11f4,
0x0617f422,
0x00002325,
0x18200cfa,
0x2f17ffe3,
0x04e8ea1d,
0xece80701,
0x08e0f5fb,
0xf8e8fcf9,
0xe70af424,
0x06fbfdde,
0xfef1e50a,
0xe2eff1e1,
0xfae5d9e3,
0xf8e602e7,
0xee11eadc,
0xfff1eae6,
0xf3d5ede7,
0xd9f101f8,
0xf2120f03,
0xeb1211fc,
0x0310f8f2,
0x35f71cef,
0x211c17f5,
0x0e16f639,
0x09f618ec,
0xee060609,
0x00fcf811,
0xfff90ceb,
0x09f9f706,
0xef0af8d6,
0x362abfc8,
0x22fbdecd,
0x160d0252,
0xf9cce4e4,
0xc9dcf6fd,
0xd1fd0611,
0xe11007e7,
0x173010be,
0x100ae4e1,
0xd7fbfe03,
0xeaebe3d3,
0xfe000bd3,
0xecece5e3,
0x010fdae3,
0x07e7ef03,
0xd10802fa,
0xffe00b0b,
0x1d07fdf6,
0x0ae8160a,
0x150dfb04,
0xf5fcef09,
0xe8fa130c,
0x1d0808d4,
0xf0ebdcfb,
0x12f3fa00,
0xdbf90325,
0xd3d1e2f9,
0x290a0be3,
0x1b0df7f8,
0x1ef60bdc,
0x0e0a0634,
0x0115fee8,
0x0713f5fc,
0x00ec10fe,
0xe9fcf200,
0xfbfb06fc,
0xf2081504,
0x081107f2,
0xfbfceef3,
0x0df7eaf1,
0xf404f11c,
0x03190afc,
0x281719eb,
0xf4cefb04,
0xe5fbf0f3,
0xf70a0ffc,
0xf6f8d5ca,
0x0012fccb,
0x3416fffd,
0xfa1b2504,
0x1b28f1ff,
0x28180acb,
0xfafcf039,
0x020ff6ea,
0x1feb03ef,
0xf5fdf30b,
0x03e50917,
0xf8f41618,
0xe7f4140d,
0xd5d4f9ef,
0xdf020301,
0xeee101d6,
0x171110f6,
0x1825e2e9,
0xe5e3ecf1,
0xf7fef5de,
0x160eded4,
0xfef30d06,
0x0600071a,
0x00f5eb02,
0x1bf3d7f7,
0x0304fb00,
0xfe1501b3,
0x0e11fae8,
0xf72217f8,
0x1511e7d1,
0xeaf82708,
0xf7e6e2de,
0x00060201,
0x18eaf1eb,
0xccdc1b19,
0xe306171c,
0xc5d6ecf2,
0x0803f7c8,
0xfbe5dafd,
0x07eb0201,
0x0fe5e501,
0xfdb8f60d,
0xffd9f410,
0x080e0c0d,
0x0525eeec,
0x11ea0a29,
0xf6051118,
0xe7e91014,
0xf20dfcfd,
0x06161018,
0xd9dffce8,
0xe4dded08,
0x091616cb,
0x380edcdc,
0x2c03e724,
0xd0e51e23,
0x011422f4,
0x09080a0b,
0x19d4eaf4,
0x0b10170d,
0xfa19e9d3,
0x1bf3d9f4,
0xeb1420fd,
0x15f4f5e9,
0xf2e6fc03,
0x023a1015,
0xf7e1d9fe,
0xdfc1150e,
0x084a0bf4,
0xeadbe302,
0xd4c5fa10,
0xf1012bf1,
0x1b19170b,
0xeaf732fb,
0xd5f9fadf,
0x01020608,
0x030202c2,
0x0d39d0fd,
0x1e12c8c3,
0x38180704,
0x0c030f0d,
0xebf8150c,
0x02030bcc,
0x1cffff03,
0x13171c1c,
0x040514fd,
0xe0dff30a,
0xf0efc5cb,
0xfcf904f7,
0xfefafcea,
0xfaf4eef2,
0xf8ffedfd,
0x00021606,
0x2414fe02,
0xd1c8df00,
0x02f81615,
0x171a1607,
0x02e50c23,
0xd9f9141a,
0xe2ddeeec,
0xf2ead9ed,
0xeddfe6ed,
0xfaf31b10,
0x081a10f9,
0x09d4eb1a,
0xe8f506fa,
0xe9f8f305,
0xeaefe2f3,
0x0befdeed,
0x00fb00f6,
0x0d071a1d,
0xf7052207,
0x1d13e9f4,
0x03b6fd1e,
0xc90e2f19,
0x11f1e8ea,
0xfce4c103,
0x140401eb,
0xfb090503,
0x232220fb,
0x0cfcf4da,
0xfff7e815,
0xb3e2feec,
0x080de4f7,
0x481a0006,
0xde131b14,
0x180b0ae4,
0x09f9e505,
0xf8e5fe0e,
0xe802ea08,
0xe0171c11,
0xe3efe8f5,
0xf00ffaeb,
0xfc06eaf3,
0x0e03dad8,
0x00f61713,
0xf2f70d2f,
0x080e4a06,
0xf10ef704,
0x1dfeeefb,
0x0c03fd01,
0x0e0c0c2a,
0xfcf106f3,
0x08f8e7de,
0x05fcfeee,
0x150df114,
0xf8060016,
0x0c0901f9,
0xeceff8fa,
0xcbbbe8dd,
0xcee4fbf1,
0xd4f1eaf4,
0xfc160edf,
0x2425e4cf,
0x2414d90e,
0xf6fb180d,
0xecf10ae9,
0xf9f2ecff,
0x18eb01f4,
0xe600f8fc,
0xffe5f9de,
0x0504f210,
0xe7f7f3de,
0x17e8eaf5,
0x06f9fd04,
0x1618fd00,
0x18fbde17,
0xc7ba04f4,
0x221df3db,
0x0be2d805,
0xeffbfc0c,
0x0ffb281f,
0x001ee7f8,
0xdef8f1fb,
0xe2e40bfa,
0xf80109eb,
0xe30219d2,
0xfc22eeeb,
0x0b2ffff6,
0xf5dcef08,
0xf2f0f007,
0xe9f908f3,
0xfa040ed3,
0xdf0d02fe,
0xfb1304f1,
0xfcf8f0dd,
0xcddf01de,
0xe8f4e1c0,
0x0cf9ffff,
0xe5f1040e,
0xed010706,
0xfeff030d,
0xfdf02106,
0x10260dfa,
0xe9f0f5eb,
0xec0dfb0f,
0xf2f511f0,
0xecfdebf2,
0x0100dbf2,
0xe2e6ecff,
0x04e0d9d8,
0xfbece607,
0xfcd11809,
0xf9090bef,
0x08d9ecf4,
0xf40601fe,
0xf502fe0f,
0x03fff6eb,
0xfb00f00c,
0x1600f3f8,
0x0d070806,
0x08fb041c,
0x11fc02f5,
0xebdf02f9,
0xec0e13fb,
0xddfcfd01,
0x0dfcf2dd,
0x06fa0302,
0xeef8e9eb,
0x13fa12f6,
0x0b1aeaf4,
0xe500f4fc,
0xf2d7f5ea,
0xfa14f010,
0x190be2de,
0xef1f0b14,
0x24231602,
0xfd0dbdf2,
0xedd401fa,
0xe0ed0407,
0xf0122212,
0xede3e5fd,
0xebfc03eb,
0xeeecf1e0,
0x1afaf8dd,
0x02d6ef06,
0xeaf1f719,
0xfb05420f,
0xdc18eef7,
0x1e04e1ed,
0x1ef9e5f4,
0x130cfa17,
0xeff7d6fc,
0x03ead7ee,
0x1000270c,
0x220ceff7,
0x0f00eaf6,
0x12fde117,
0xd6fdf1f8,
0xd0f611f1,
0x00042521,
0x100e1223,
0xf70a0401,
0x11f9ff0b,
0xfaf70d1b,
0x0ef50213,
0xeec8deef,
0xe5f9080c,
0xf20bfef4,
0x0a0af0e7,
0xf2d5fe0b,
0xe6ead6f3,
0xf0e3dae6,
0xf4f3fef7,
0x0ef1e7ea,
0xefd303f8,
0xebdcf0fd,
0xd5c108f9,
0x12f0ebe8,
0xdc1bf6e4,
0x120fe205,
0x15180cf0,
0xf30af2f7,
0xd609f7fd,
0x21e91cff,
0xee07fcfa,
0xf5c8f402,
0xf703010f,
0xebebe6f9,
0xd9efeddd,
0x08fbe9da,
0xf8041a0b,
0xf9021601,
0x16ff2001,
0x02050e07,
0xf1f30e22,
0x05040cff,
0xfcf4090d,
0xf7f40501,
0x04f9fffb,
0xf9fc00fe,
0xfaf4f9f0,
0xf8eaf8f8,
0xe3fb0300,
0xfa0d0be1,
0xe0ffe7e9,
0x0bf1e015,
0x030f0afe,
0x19eee4fc,
0x07f5e701,
0x04fa1c16,
0xfdff1c11,
0xf40ffdf9,
0x22fae0f3,
0xe703e9f9,
0x04e41133,
0xf9030b1f,
0xf3faf7ef,
0xfeeff9ee,
0xf3fefb06,
0xe601f4fa,
0xfa0704fa,
0xfa0601f0,
0x1bf4f80c,
0x08eff8da,
0xf9e0ee14,
0xefe90904,
0xe1f1c9e9,
0xf4fff4de,
0x1af0fb23,
0xd2f91d13,
0xfd1112f4,
0xf9fcf5ed,
0xe8021317,
0xfb16f1f9,
0x0f230cfe,
0xf7e70fe3,
0x04150d0b,
0x1fff0301,
0xf1e90420,
0x0b00eeed,
0x160a1813,
0xfb0aece5,
0x0600f8fe,
0x0507f608,
0xfaf3ede8,
0x0d01f4fa,
0xfe19201c,
0xf30901dc,
0xeaedff0c,
0xdcfe22fd,
0xe40808fc,
0xdef8ecf0,
0x04161c0f,
0xf41e0500,
0x0d241606,
0x130ff703,
0x181b230d,
0x1a0701f6,
0xd2eadf0a,
0x04f4d6f7,
0x1902e110,
0xfafc1710,
0xf3ec0ef4,
0xf8e6ecdc,
0xf0e4f305,
0x2c1b03fe,
0x121d1233,
0x24210002,
0x2c1ff9f9,
0xf91d16f8,
0xf8090cf1,
0x0cebee06,
0x130e200e,
0x0005061f,
0xe1df0afc,
0x010a11e8,
0x0c27e003,
0x04e83107,
0x1cf40c0e,
0x13d6f012,
0xf9d7f7fb,
0xd8caebfd,
0xf70bf706,
0x0b1a0407,
0x0ceaefee,
0x08fdf60d,
0x060a35fc,
0xf0cdf9f3,
0xd9eef2e6,
0xe70204f6,
0xfceaea06,
0x13f4e3f0,
0xfa02defb,
0xe7f5eef1,
0xf907e8e8,
0x1a01fff6,
0xf3fe0d26,
0x110cfeff,
0x0d0cfa02,
0xfbf9f7f1,
0xfbfffff6,
0x0801faf7,
0x0bfcfcfe,
0xe8cfe90e,
0xfdd7d013,
0x0fd4fa06,
0x19f906eb,
0x1cfc1313,
0x0e49080a,
0xd4cbd7e6,
0xe5f5e7de,
0xe5eed2e5,
0xf3e2f500,
0x0d15e4f2,
0xf7dfea04,
0x01f7ea1e,
0xedef0005,
0xe309fafc,
0x08f80eeb,
0xf4ffecf0,
0xf8f2fc01,
0x0c01f2f4,
0xedf8e70c,
0x15ece7f0,
0x2e06e7e8,
0x16181207,
0x07fdf2f5,
0xf3120d08,
0xfb100304,
0xdef2f7f3,
0xf9e904e0,
0x1403fa17,
0x170dfbfb,
0xdef1020a,
0xd610e3ff,
0x081009fa,
0x05090f0f,
0x15050a2e,
0xf201f6fc,
0x1106e80f,
0xffede603,
0xede50c01,
0xfd28fbea,
0xfaf2e402,
0xe0fa0b12,
0xeef0e7dd,
0xe4d6d8fb,
0xeffd0afd,
0xfefdfb21,
0xfaebfa0a,
0x080acfe3,
0x1bf21503,
0x0b25f9fb,
0xcf03ebfc,
0xfdf3fc16,
0xf4f91ce0,
0x0c1f060a,
0xe8003bf4,
0xfc03f5e1,
0x13e7fcf3,
0xea000c10,
0xf3f8f11f,
0xfce409f8,
0xf4e3111a,
0xd9ff3d17,
0x0b23220d,
0x0b0010fb,
0x09e4f8f6,
0x0afdea18,
0x3502bedc,
0x1ad0c024,
0xf5f91f15,
0x04eae8f6,
0x0efee3f4,
0xee0cfbfa,
0xf5dfd20b,
0xd3df1f1b,
0x253320f2,
0xffe7e2ed,
0xf7fdeff2,
0xf4171306,
0x09221a0f,
0x14ee22fe,
0xcad5090e,
0xeef40401,
0xef0e09df,
0xd3eef3fd,
0xfe2006f3,
0x1402fbf6,
0x060cf9f8,
0xf3010d11,
0xf5ffe4d6,
0x02feef1d,
0x0f0c2432,
0x02f52cf4,
0x00152a01,
0xebf8ced4,
0x00f6eefb,
0xf8f4ece9,
0xf4f0ede8,
0x02f0e40b,
0xfbf20aff,
0x06110303,
0xf5eef9f6,
0xfe041e0b,
0x15161d15,
0xccf10b38,
0xf0f62331,
0x00d9fc02,
0x06f8ede7,
0x10f1f202,
0xfae0dc08,
0xf7f5dffa,
0xe2c3e232,
0xdb012208,
0xf80712c8,
0xff00f100,
0x0509fbf9,
0xe7f9eeeb,
0xef2304f6,
0x110df9f7,
0x1205f8f2,
0xf9f00f07,
0x00eb1702,
0x2bdbe917,
0xedbcbc1e,
0x04e30011,
0xf9fff20e,
0x060c1f0d,
0xda0a10de,
0xefe4d0f1,
0xb3d3e8ee,
0xf3e9cabe,
0x1825fafc,
0xd72b0d22,
0x1e160401,
0x22f51702,
0xee220e16,
0xf7f605d7,
0xe4150810,
0xd6f0e4fd,
0xef01dbe4,
0xe204e8dc,
0xf4d0c8d5,
0x0e02fffa,
0x0bff030b,
0x2d081014,
0xf5141d14,
0xf60e0f1f,
0x051e0cf2,
0xbe1b15f9,
0xe511deb8,
0xebd6e5c9,
0x05221feb,
0x011ff5ef,
0xdf0ff300,
0x11f9e8f6,
0x01d7e7d8,
0xd5d104e9,
0x08eefae5,
0x04eade00,
0xe9f00911,
0x0d08ccf6,
0xfbfaf70c,
0xcb000612,
0x151612d5,
0x04f2e30a,
0x11dd00f9,
0xf2fb0611,
0xdef50507,
0x070efee9,
0xf4ff26f8,
0x1702fd02,
0xd8c8ec0d,
0xed15f70d,
0x0a0c0ae5,
0x20071e03,
0x124c1e11,
0x0ffd0800,
0xe8f7fdec,
0xe2f4130b,
0xf906000d,
0x0ffc3a1f,
0xdc0eefef,
0x09080ce8,
0xfc1603d0,
0xf327d3f2,
0x13fbcab8,
0x2f0bf2f5,
0x0b0f1a17,
0x00f50e1a,
0xede8e2fc,
0xf105eef0,
0x04201805,
0x1a1407d5,
0xf0f3fded,
0xfef9eae1,
0x0c080c02,
0xe4fb05fd,
0x05f1de00,
0xf6fdf504,
0xfe0f1a0a,
0xf81f04fa,
0xf8f6e404,
0x00df141b,
0xff011d05,
0x0b06f124,
0xf50a131b,
0xd5e9f01c,
0x0d2605f6,
0x10ecf3f5,
0xdcce0625,
0xf01e0bfe,
0x0ed90a1c,
0xce04fde1,
0x04f9ffeb,
0xfee3edf8,
0x030ff0f9,
0x0dff04f5,
0x04110412,
0x02091af5,
0x0dfadf04,
0x00b3f410,
0xeb0b2210,
0xfdfbfb0c,
0xd7e0eaf3,
0x05f4eef0,
0xec190f14,
0x0a041bff,
0x1705cfe1,
0xe6d0d011,
0xb2cdddd8,
0xf2fadff9,
0x2d280ffa,
0x26ff04fc,
0x211c0309,
0xf60af428,
0x10eb0a26,
0xeb0a0422,
0x10173129,
0xfd12fce6,
0xf0fb0101,
0xd4d9b9be,
0x04e6c7ae,
0x05ebfa01,
0x06f7182e,
0xf5f7231e,
0xd8020e00,
0x21f500cc,
0x09f5e7eb,
0x14f00617,
0xe8ebe1ef,
0x0adfbdec,
0x1a1402f3,
0x0b0dd8f3,
0x14f3dc1b,
0x00e00b1e,
0xdc0327f4,
0xe3cdf407,
0xe6ea272c,
0xed1010ff,
0xf0eb00c2,
0xe8ede927,
0xe8d0d904,
0x09d2b20a,
0xf2f0def7,
0x01feffec,
0x0fe3daf4,
0x1916f908,
0xf3fce7e7,
0x1b2603e8,
0xff00de1c,
0xebeef4f6,
0x170f0b0a,
0x140cedec,
0xe2e9f5f8,
0x3018f8f0,
0x09eaf719,
0xe1d4c8ea,
0xeaf9df0e,
0xd9fef1ea,
0xd3d2e7fe,
0x0bebf4d1,
0x19e0ee1a,
0xe7fd01fd,
0xe1ecf9dc,
0xfcf71d0d,
0xf0e5fafb,
0xf7e902fd,
0xeefef6e6,
0xeef5fef9,
0xd5f2e3fe,
0xf3c707fc,
0x01d601f7,
0xefc0d9f5,
0xf3f1fdf3,
0xfaf9fee9,
0xf20af3ff,
0x1309f7f1,
0x010afcef,
0x1107f0ef,
0xfe04e402,
0xf309eceb,
0xcf040d08,
0xf5f81019,
0x181c10c1,
0xe2080011,
0x09fde6f6,
0xfe0bfd1f,
0x12122eff,
0xee0f13fe,
0xf2fce4e0,
0xeee8baed,
0xdaeb12f6,
0xf101f301,
0x1607f6f1,
0x1e00f1fc,
0xf6fef909,
0x0cfc11f8,
0x03f7f003,
0xe7f9fbf9,
0x102405f2,
0xfde3f404,
0xe8fffa0b,
0x04e7f0fa,
0x1727ed0d,
0x04e2fd04,
0xf0e7effc,
0xee280e28,
0x2a1207f8,
0x0000080a,
0x09ea0ee9,
0x0aed132d,
0xe21c1b02,
0x0d13fc3b,
0x0d3e1aec,
0x2301f105,
0xf708f513,
0xdc0d18d2,
0xfcefe3f3,
0x040f0eff,
0xfbfb0f0a,
0xdeeee4da,
0xe7fefb03,
0x140ef603,
0xc3e7fafa,
0xf708e2c1,
0xffe2dad5,
0xfb0809ec,
0xe400f2bf,
0xedc9ddfe,
0xdbebf5ef,
0xf6fb261f,
0x092b030b,
0x2a0b01f4,
0xf5080df0,
0xec14f2f0,
0x1c010c04,
0xef01f60d,
0xd3e80a1b,
0xea05dc1e,
0xf4020104,
0x171908ef,
0x210a1a0d,
0xe4f80a3f,
0xf7f1eb23,
0x0f0ed4fd,
0x31fa0e07,
0xe001fe15,
0x0c0605e0,
0xfa04ed0a,
0x0bf3e5e7,
0xfff0ef0c,
0xe7091f19,
0x01eb050b,
0x031b06ef,
0xf004f2e1,
0x0e04efe7,
0xedbad00a,
0xe0c4e6e9,
0x0beef61e,
0xda1e100e,
0xf9ecf8f4,
0xe003e3ef,
0x05192429,
0xf9fafdc0,
0xfff10625,
0xef14181e,
0xdcfaff01,
0xf0120a07,
0xff180be7,
0xedf1fdbf,
0xe4fbe7e6,
0x130516f9,
0x08e9ddf2,
0x05e60902,
0x020af7fb,
0x0cf7090e,
0xeff9fe0d,
0xfdf8f9f0,
0xf805f10b,
0x07090e10,
0x0c0afdf1,
0xd8c9f508,
0xe2f10b07,
0x021a3f04,
0xee132f12,
0xe71701eb,
0x0b0ef6d8,
0xc0e1be0f,
0x0e10efd6,
0x16e1fdfa,
0xfb021011,
0xffeef000,
0xfb0d04f4,
0x04fa0618,
0xf9dce0ea,
0x041301ff,
0x2112eeee,
0x07060d0f,
0x051a1801,
0x1807fa08,
0x0ecd0421,
0xd6d8edf8,
0xf901f209,
0x09fc0915,
0x0002010d,
0xdc00f507,
0x294e2be7,
0x2745e6fc,
0xfe00ecf1,
0xe6c9e9f3,
0xf8eaf6fa,
0xef0a03f6,
0xdaf20215,
0xf82c0fdd,
0x1903fafb,
0x080d07dd,
0xfdfa08c7,
0x0204fff2,
0x03001501,
0x05f2e20b,
0xdef0f720,
0x1a0019fb,
0xf3030807,
0xef0516ed,
0xddf71d03,
0xe2202400,
0x283a0edd,
0x1b1f16f3,
0x0600fcfc,
0xf5f5d70d,
0x01f8d9fc,
0x26f0e8fb,
0x05fed8fe,
0xf1da05fe,
0xd3fef2f8,
0x0503fbca,
0x1ff505ff,
0x0e14eeed,
0xf6fbe11d,
0xe9ecdcec,
0x1cfc0113,
0xfddcf00e,
0xe0cef9fd,
0x022522fd,
0xfb2ae9ff,
0x2b03fffa,
0x2910fa14,
0x1a161416,
0x0002f012,
0xe2e1ff12,
0x09f7eadc,
0x11081602,
0x0ed603fe,
0xfc0b2b18,
0xfaff2cfb,
0xfff32506,
0x1b04e8ee,
0x2b2dd5d3,
0xd5e3f61f,
0xfb02d0f1,
0xc7e2dadf,
0x0bf91e0f,
0xf2040907,
0xee0100ea,
0x16fb3717,
0xf4f20521,
0xff01fb03,
0x17240c01,
0xea031611,
0xe4fb0c01,
0xeb1232fb,
0x03dff7f4,
0x02dcf0fd,
0x1df1e7f5,
0xf4011d2b,
0x06f5fcf2,
0x06f6ed0e,
0x16fff9fd,
0xf5f50114,
0x000d0717,
0xfa130e07,
0x0e26fbfb,
0x1b07eff9,
0xf7f40e1b,
0xf9072910,
0xfdf2e80f,
0x1a0cf201,
0x1d0d0c1b,
0x18f5002a,
0xcdf80012,
0x20dbce04,
0xf702fde0,
0xfac30a1b,
0x03020b0b,
0xe7ee0212,
0xe6140fff,
0x00120beb,
0xfd0401fa,
0xfdebf4fa,
0xed0704d5,
0x0b0af4e1,
0x04dbd7de,
0x1df3dc18,
0x05ee041c,
0x16fdd311,
0x110d0f10,
0x0bf8080a,
0xd5ea0df8,
0x0517fece,
0xfcedf4fa,
0xff061e24,
0xd0f8f709,
0x1b1300f6,
0xf2102709,
0xe8111cfa,
0xf7f80fed,
0xe1f826f8,
0xfcfcedd6,
0xf2e90222,
0x0af4dcdf,
0xd6f706f7,
0x1a1f00f0,
0x0e0ff7f4,
0x0e1907e6,
0xf70411fb,
0xe6110913,
0xfd161706,
0xcf1245f9,
0xe316edc8,
0xd6daf80c,
0x36fd1bee,
0x113708f1,
0x131cfb22,
0xf3e8fcda,
0x111ce2f9,
0x111030d6,
0xef08eefb,
0x1119e5b3,
0xfeed042c,
0xdafbed03,
0xccf20bf1,
0xe51cedc4,
0x25f1f10d,
0xe2f508f7,
0xe7f618f3,
0xeef8e5ee,
0x06e3d5f4,
0xc7fc271e,
0x0e1a22e5,
0xe101fefb,
0xfaeee8d5,
0xccece4e4,
0xe9d4b8ea,
0x0f2e3803,
0x241f1e1b,
0x10140a0e,
0xec30170e,
0x1e1b1907,
0xe9fbf2eb,
0x06f6fa02,
0x0ff203e8,
0xec06fe05,
0xe9fff3ee,
0x05152201,
0x130ee4f4,
0xfde1e3fd,
0x1af9f1ed,
0x05031721,
0xfc020b1a,
0xd1150032,
0xf7fa2ae3,
0x0501f4ff,
0x07f62510,
0x1b0ef4f9,
0xeefcea18,
0x01f4edf1,
0xfffcfffd,
0xf2efe606,
0xf40115fe,
0x051cf8f9,
0x1200fafe,
0x1d1a122a,
0xe5ea0212,
0xe607fcf2,
0x041ff604,
0xf1d60923,
0xb9d92033,
0x200b10f8,
0x02dfdc15,
0xdcedfefc,
0xdbfbf117,
0x01122cf2,
0x281702fc,
0x21eff7e9,
0xd6e5041b,
0xeef10505,
0xfd0d0ae9,
0x14faee0a,
0x0c0413ec,
0xf1f2e412,
0xfa07020c,
0xf4fede05,
0xffff1911,
0x11361f01,
0x2816002b,
0xefff1826,
0xe4d9d2dc,
0xb8d9e2d6,
0xf6e3e6e1,
0xd0f0edf2,
0x18e6f604,
0x09f006fc,
0x40f9f8e7,
0xf7e1e707,
0xea29ef18,
0xfbf818de,
0xcef72f0c,
0xf3f22bf2,
0xe2fafce2,
0x100715dd,
0x000cd5e6,
0xffe7c6d7,
0x0c030724,
0xeff60f16,
0x1ce6fc01,
0xe8f00ef0,
0xe4ebffe5,
0xb9f0dfe8,
0xf9e1ffdc,
0xff16d4da,
0xf20510fc,
0x1011eef1,
0x24f1fbe3,
0x16f3dd09,
0x0ae21123,
0x00093221,
0xee3a2604,
0xf80109f4,
0x10f4f800,
0xeee6fff9,
0xfbfbd2e9,
0x0dcf04dd,
0xe3dbcf06,
0xf6f0e6fb,
0xfcecf805,
0xeb2f0208,
0xfe08e2e3,
0x0e100705,
0xdee5f400,
0xe5ede0e0,
0xe802f2ed,
0xe2f0f5f3,
0x07fde3e4,
0xf4fc17ef,
0xf6f31227,
0xe60803f4,
0xe6f4e7f6,
0xe2eaecfd,
0xe5e0f6bb,
0xeefcfe0a,
0x091410f7,
0xfb0cf0e4,
0x02ddfbe1,
0xd6e7fc2c,
0x02ffe7ed,
0xd7ecee05,
0xf404f1ee,
0x0806fffd,
0xf708eb1c,
0x0bf9da14,
0x07d2fcee,
0xe9fbebee,
0x1ff3e5f3,
0xf0eff6e5,
0x02f9eedd,
0xe7250911,
0x081302f5,
0x0c06faf2,
0xfcf80c0f,
0xf9fcfa01,
0x01f900ff,
0xec081916,
0xf8fdf507,
0xe0dfebe6,
0xf810d2eb,
0xdec5f8e4,
0xe6fd0fe9,
0xf2433b05,
0x14170a06,
0xf5f5f9f1,
0xe4f3df07,
0xffe41beb,
0xe0faf908,
0x1316080c,
0x04fe0cf7,
0xfffff724,
0xfcfcfdf0,
0xee010506,
0xecf40dfb,
0x08dbfcef,
0x090b0aed,
0x0118f5fc,
0x04e0e6f6,
0x13090ce3,
0xf2edd0f3,
0xfbe3e5f4,
0x1cf92f11,
0xf7fc0808,
0x0706f013,
0x160d04fc,
0xfa1a0318,
0xf700f9ee,
0x14290224,
0xf7e30b03,
0x00efcffb,
0xf0bfe7fa,
0xd1d901f6,
0xedf4f8e1,
0xf9fb09f1,
0xe9ff1f0a,
0xfb0302ed,
0xedfdfa08,
0x23eaebed,
0xe8e2fe00,
0xfafcef08,
0xf6f1f4e4,
0xe9ecfcee,
0xd1f1f201,
0x0ced000e,
0xe0021efd,
0xfcedf610,
0xeff04809,
0x12221efc,
0x24170000,
0xff050e01,
0x0df60a17,
0xf6f8faf2,
0xd3cf080a,
0xdeeefcd1,
0x2d13eada,
0x17dbfaf3,
0xe5e2e82d,
0xc0e6f0ff,
0xfd0f22dc,
0x2237eff7,
0x04e8ebfc,
0x0012fffd,
0x030bc4aa,
0x20efddfc,
0x0923321f,
0x05fb0403,
0x3d150a0e,
0x171a02fa,
0xf8e1aa20,
0xfbd2f611,
0x08f8f904,
0xc4ecf7f6,
0x21191024,
0x031305f5,
0x0303fe01,
0xd000fbf8,
0xe4e6ffee,
0x02ebf418,
0xf5f708e1,
0x1704cee8,
0xfc220a0d,
0x26fffef3,
0x000312e7,
0x071e0dfe,
0x0f0f0af2,
0x07f2e12a,
0xd5e6f7ef,
0xea190b1c,
0xd5e2f6fc,
0xf90105dd,
0xf4ff01fe,
0x02faf6e8,
0x0306e6f6,
0x180afb06,
0x0beb0a19,
0x0502fa0a,
0xf007490e,
0x040c1b0f,
0xf30b12dc,
0x0302cc06,
0xde0bfce9,
0xf701e3d3,
0xd1d80b10,
0x00fdf7e2,
0x08f9ede3,
0x0ef6d5ec,
0xd7dfe90c,
0xa296e5f9,
0xf9000bc8,
0xfb0405f4,
0x08ddef03,
0xf5ec09f8,
0xf60d0d1c,
0xdd010500,
0x170cf2ec,
0xf502fbff,
0xe4070a07,
0xe3e7f9cf,
0x0ef3c2ca,
0x03032603,
0x0b201518,
0x0f021a05,
0x1a2305f7,
0x0ecaee28,
0xe5ee1702,
0x030f14f8,
0xfbfc1f16,
0xeb152429,
0x0b0409fa,
0x1bf7cdf0,
0xe7d1c6f4,
0x14fff4fc,
0xfe05ebfc,
0xf0e6eff5,
0xddd30d08,
0xf4fafbe5,
0x0a08efed,
0x170d0ef2,
0x16050112,
0x06fafe1d,
0xfcf4f6fd,
0x08f50912,
0x000ff707,
0xe5caff27,
0xc8e709fe,
0xfedadcd7,
0xfa171c04,
0xdf38fcf9,
0x09f2e509,
0xf70bdfce,
0xeacfcdf3,
0xfac90adf,
0x01c2befa,
0xead6d037,
0xe2f407f2,
0xccef1615,
0xdbe7f7e4,
0xd2d8e8e2,
0x071d0d00,
0x1536b8eb,
0x34d3e901,
0x06070110,
0xfe0a07e9,
0x0a190507,
0xf0fcec12,
0x1aeaefee,
0xf3052528,
0x18010615,
0xef0f1a22,
0x0b2bcef2,
0xeade0cfd,
0x3102d8d6,
0x2914d0ed,
0xe2d8f038,
0xd7dcfcfc,
0xf7ecc7f3,
0x06f1fffe,
0xf3f4010a,
0xfbff09d7,
0x0d061400,
0xf7fa0605,
0xf2031e13,
0xf60501f3,
0xc8edeefa,
0xe2ed03f2,
0xd31a1002,
0xf8e9cffb,
0xf1d4dcda,
0x1beb0808,
0x150b1906,
0x0a080806,
0x0e00f4fc,
0x1b13f7e7,
0xfc040209,
0x020a0bfe,
0x1807ff0c,
0xe6efdd06,
0x0bf9fd22,
0x0dee3000,
0xdddf19fb,
0x0dfcf900,
0xff290e2b,
0xf1dbc5fb,
0xfbb0dbf9,
0xd0eff3fb,
0xfbf4c0e7,
0xe2cff7d0,
0xd7e0b305,
0xf8f3f1f4,
0xced80dfe,
0xd0030ae9,
0x0f0d12ea,
0xf2efe5f6,
0xe1e3f4fb,
0x290f0610,
0x0bc3ed18,
0x16f9f6fb,
0x0c09f7f8,
0x07180ffe,
0x0d0d0c20,
0x15080600,
0x02282623,
0xfd1cf6f8,
0xfccbdce9,
0x02c2f900,
0x0500041e,
0xfc1b1ffd,
0xd8e50816,
0xf93220e7,
0x060f0100,
0xf5f9ef00,
0xf60e0efa,
0x0b2022fb,
0x0a050a0d,
0xe6e0f608,
0xdb0d0ae6,
0x2f3f1f02,
0xfdef091b,
0xe8fc0af3,
0x08f7e1e8,
0xc22e221b,
0x1e182305,
0xf0d7d7ba,
0x00dfc0eb,
0x05ed0a05,
0x100e0416,
0x15140e00,
0xfc01ed10,
0xcecc06fe,
0xd2f6ebf0,
0x12edf7dd,
0x00ea17fa,
0xf5fefcd7,
0x02f8eb05,
0xf61be7d9,
0x1102f4df,
0xefece805,
0xc9e4fc25,
0xe91d25d6,
0xfeec1e09,
0x240212fa,
0xf50c171e,
0x07ebe9f4,
0x0c050306,
0xedfe0af6,
0x29cfdaef,
0x1af3fe0b,
0x060e0b26,
0xf1faf610,
0x01f12a0b,
0x174d1aef,
0xeadf070f,
0x0029fcf7,
0xe4ef211d,
0xf9291814,
0xd81e37f7,
0xfcf0f0e5,
0x1c0ce8e2,
0xe6030aca,
0x0b24ccdc,
0x1911f2fe,
0x1ff0ef08,
0x0ffa041b,
0x13061212,
0xe9fe0bf7,
0xec0f171c,
0x0b1e26fd,
0x0c0a10ef,
0xf4d1d409,
0xfbf7d7cf,
0x0902f6f4,
0xf2f9f6fb,
0x00fef0f4,
0x03f5ff14,
0x09091e0f,
0x1d1f1400,
0x130aec01,
0x1efe1321,
0xf3f1280e,
0xfe05042e,
0xe5f41d33,
0xe1d2e000,
0xfbe7f2e2,
0xf6e9be05,
0xe0aaf10e,
0xf5f5f6f6,
0xecf60e26,
0xdce8fff1,
0x04fdfbd1,
0xf9edf3f5,
0xe70ffa12,
0x0bf309d3,
0x07161af8,
0xfe180502,
0xfdf7e802,
0xfd0fff08,
0x0c16190f,
0xfed0f304,
0x2604eefe,
0x18fd0d1a,
0xf80c1922,
0x100d0dee,
0xfdf50202,
0x15ffddf4,
0xb3dae0e2,
0xfa06e0f9,
0x001a17f6,
0xfc1b0723,
0x3202fc2b,
0xff09e711,
0x0de7feee,
0xe0f0190a,
0xef152211,
0xf70eeff4,
0xf40be8e2,
0xff07e6d8,
0x1aefe0d6,
0x1bf6020b,
0x0506082f,
0x1af63413,
0xc7e6fb23,
0x0b06f5e0,
0x03150adb,
0xf9060edb,
0xbae1dadb,
0xfad9cad0,
0x091924ea,
0x2209e0eb,
0x0303dd14,
0x29030f26,
0xec0311eb,
0xe5e7fff9,
0x031bf808,
0x12120f0f,
0x00100108,
0x01f10708,
0x00fdfe08,
0x0ef21727,
0xf0fa09f3,
0x02fe1f07,
0xf7fcf6fe,
0x0efee7ee,
0x10ed030c,
0xf5150f19,
0xfdf41c0c,
0x0cf103e4,
0x00f2fff6,
0x05f615ee,
0x0703ed0c,
0x01f7fc03,
0xd9112100,
0xf719f5ff,
0x1102ea12,
0x1a0f010e,
0x05180225,
0xfded1703,
0xfd02f10d,
0xe9dcebea,
0xeeedebf7,
0xf9000dfb,
0xfd0afefe,
0x0bff0cfa,
0xf4fc0df7,
0xf6eb09f7,
0xf0f00bfc,
0x07e40ae8,
0xf5080d09,
0xfd1f1e25,
0xfd1718e9,
0xfaf7f304,
0x07fefb02,
0xf90100ff,
0x04fefa05,
0xfbf6f7f9,
0x0206fffc,
0xfbfffaf5,
0x0303faf2,
0xf3f4e7f7,
0x031013fa,
0xf713f915,
0x0d070a0b,
0xfe040a0c,
0x0d243900,
0x0e270b02,
0x0ff4f1fd,
0x09ed180c,
0xe9060a10,
0x0e0331ef,
0x00ff0bf8,
0xff070307,
0x01070101,
0x0afff701,
0xf5fb01f3,
0xfefcf9fb,
0xee00f8f4,
0xf60706f4,
0x0ee4f2f7,
0xfcecf8f0,
0xfc1022f3,
0x0d041c2f,
0x16f8e3ed,
0x00f91f3a,
0xee1b20f6,
0x2914f30e,
0x040b01fc,
0xf311ef24,
0x16101e11,
0x0f0d2914,
0xfdf4edea,
0xf0f9fa02,
0xfd09fa16,
0x0bf81013,
0xfa030df4,
0x12eff1f5,
0x04fffb03,
0x001d0c07,
0x1806fdf7,
0x0df6f511,
0x08f3f7fa,
0x0a13f711,
0xf803edef,
0xf4040918,
0xf406f80e,
0xecfc0807,
0x061104dd,
0xf7fcf6f8,
0xff242e07,
0x24240c10,
0x0d12fcf7,
0x4df7fd06,
0xfc0325f7,
0xeffdf815,
0x06f2fafa,
0x010500f9,
0xfb0501ff,
0x0006faf9,
0xfbfff7fd,
0xfff8fb06,
0x0303f9fc,
0xfe03fc04,
0x01faf804,
0x04fe02f5,
0xfc04f901,
0xfd00f9fc,
0xf5f8fb00,
0x05fcf6f7,
0x05fefaf9,
0xf905faff,
0x080103fa,
0x03fdf9f7,
0x00fa07f7,
0xfefa01fb,
0xfffefdfb,
0x01f9f9fe,
0xf706f6fe,
0xfc00fa03,
0xf9f8f8ff,
0xfc06f503,
0xfb0204fb,
0xfffdfff8,
0x06fafcf7,
0x0700fdfc,
0xfbfb01f9,
0x03fc0201,
0x06fcfa02,
0x00f8f604,
0x05fbf9f7,
0xf8fbfffd,
0x05fff7fc,
0xfefcfefe,
0xf9f801fc,
0x030504f8,
0xfc0306fb,
0x01fd01fc,
0x00faf707,
0xfd02fbfe,
0x00f4fe00,
0xf9fb00ff,
0x04ff04f3,
0xfbfcf1fb,
0xf5f4f800,
0xf6fc0205,
0xfbf800fb,
0xf4f4fdfb,
0xf906fdf8,
0xfe0302fe,
0xfdfef8ff,
0xfbfe01ff,
0xfef70200,
0x04f903ff,
0xfff901fe,
0xfb030101,
0x02fffe00,
0x03ff03ff,
0xfa02fafe,
0xfdfcfafd,
0xf5f8f9fc,
0x05fff5fc,
0xfa01fcf6,
0xf9f60403,
0x04040203,
0x05fafc00,
0xfb03f0fd,
0xfcfc02f9,
0xfef8fcfd,
0xf8fd0501,
0xfbf703fa,
0xfafb05ff,
0x04fdfbf9,
0x03020005,
0x0204f802,
0xf9f8ff01,
0xf8f801fc,
0xfdf500f7,
0xfafd0306,
0x0204f6fc,
0xfdfff4f9,
0xfdff04fc,
0xfeffffff,
0xfdfcf8fd,
0x00080104,
0xf8fef601,
0xfa01f501,
0xf2010102,
0x0303fbfe,
0xfcfdf7ff,
0xff0002fc,
0xf9fdf5f4,
0x0504f8f9,
0xfafef6fe,
0xf5f3fcfa,
0xff04fbfc,
0x14d9f7fe,
0xebee0402,
0x25f60e09,
0x00080905,
0x1af803fc,
0xe9e8f807,
0x0bf5ff1f,
0x08fa01fc,
0x0ff1ed00,
0x0d0f1308,
0x0405fa06,
0x09efe9f6,
0x0102090a,
0x0ff0fbf0,
0xf40c0e15,
0xfa0a1816,
0x1a0601f8,
0x21e2f9f6,
0xf0ecf723,
0x11f9feef,
0x061b17f1,
0x120618fe,
0xf4eeeffb,
0xf4f10d10,
0xfd0e11f5,
0xf1ecf4f8,
0xf6f1f110,
0x000a0007,
0xfdfaebf3,
0xf0f6fd0c,
0xeff7f50c,
0x01fc10f4,
0xee070af7,
0x08130b1d,
0x0101041e,
0x06f6fa1d,
0xedef22fd,
0xfc09eb02,
0xf6fef703,
0x01fd0403,
0x0300f1ff,
0x0403f704,
0x09f4f8f4,
0x02fdfcfe,
0xd1040c1a,
0x01180509,
0x2b23fee9,
0x3ae8010a,
0xf9040411,
0x070406fa,
0x11f70710,
0xf8f0040b,
0xf9140504,
0x1f1610ef,
0x0bfcf7f9,
0x05f6f707,
0xf10cf40f,
0x0a10f90a,
0x130ff7fe,
0x1601fd02,
0x04080d12,
0x08fd0b0a,
0xee122004,
0xfe0bfff3,
0xf2f5070b,
0x150fe1ea,
0x1106f80f,
0xfaf5ee00,
0x0eebf505,
0x0409f20a,
0xff052704,
0x0e00f417,
0xef02f804,
0x0f01f721,
0x140afcef,
0xfcfc0b13,
0x000116eb,
0xff0913f9,
0xf0060300,
0x0702fe0a,
0xec0d11f8,
0xfaf616fa,
0x0ce71708,
0xf0f6030e,
0x090cfbf0,
0x02edf91a,
0xedef0311,
0x000306e5,
0x0b0201ee,
0x1109fcf9,
0xfbf70120,
0xf7e4f61a,
0x03191001,
0xfc15080f,
0xea1d1c17,
0x2af9fe18,
0xf1f104ee,
0xf7fbf718,
0xfa061204,
0xfc011a1d,
0xf0161420,
0x1ff724f3,
0x0de7c0f3,
0x0ee10315,
0x00cee313,
0xcfd5ee03,
0x0df9f115,
0x02d21121,
0xfc46100d,
0x1a2110fd,
0xf40f0908,
0x0006f6e6,
0x2402cf09,
0xf60e1618,
0xeaf303f0,
0xe8f70a0b,
0xfef106fd,
0x11fe0cf6,
0xfbcf0a1a,
0xf6db05de,
0xcee1dfd8,
0xfefaf5f7,
0x090bfd1e,
0xd9eae4e0,
0x211b2a19,
0x180b16fa,
0x20e8e737,
0x15f92e18,
0xf5e5e508,
0xceeef80a,
0x0901e9ff,
0xcbc504fb,
0xbe08f3ef,
0xf500dbd9,
0xfecdc8e8,
0x0ff6f727,
0x02f400f9,
0xecf1180f,
0xf30608e8,
0x0407f6fa,
0xf0f8fff9,
0xf81608f8,
0x0f0afff8,
0xfbf5010e,
0xf2f10c11,
0xf2e7e7ed,
0xe3cedd05,
0xd6cffa10,
0x00d9e30b,
0x2117e104,
0xc6d308fc,
0xf6e5e3e2,
0x09d2e6b9,
0xeee9f013,
0x16130a04,
0x14d60813,
0x0400f42a,
0x0812ff13,
0x16f60e02,
0x080810f9,
0xf70003ff,
0xfa1011fe,
0xd7fb06f4,
0x061f16e6,
0x2302fcf8,
0x1408091c,
0x2306032e,
0x0006c9f4,
0xddfd0f18,
0xe4db0310,
0xdffaf4e7,
0xef1533cf,
0x182c0efe,
0xf414070f,
0x0c01f703,
0xfbf9f305,
0xd7cbf511,
0xd1d40309,
0xfc071f13,
0xebeef5ed,
0xf4f6e9f4,
0x0af7e10b,
0x17200401,
0x1c26f702,
0x1515fd14,
0xf8f7f4f9,
0x0e17fd0d,
0xc305d0f3,
0xd6cfe6eb,
0xe0e21bf1,
0xdc12430c,
0xeaf915ed,
0xe7ff270d,
0x1d2c190a,
0xe8e3e0f6,
0xfef6fc0c,
0xd3ed08e0,
0x07291ff1,
0x13240b14,
0x061007e7,
0x17eccff2,
0xe3f4d649,
0xe5d71c08,
0xc5ec0018,
0xf4fa06e5,
0xfae4ebfe,
0xeffe140f,
0x092cd0db,
0x38eae505,
0xedfffa29,
0x1a0604f7,
0x0c2119fd,
0xfc10e2fc,
0xe6f7f9fe,
0x07f5f4f3,
0x00eff9fb,
0xebf9ff00,
0x2439e4e9,
0x05dc1014,
0xed01ecf2,
0x1b01afd4,
0xd5e3bb24,
0xc7d2fdf6,
0x2effd9ec,
0x0ed91b16,
0xe2fd0d1e,
0xf1fd1aed,
0xf9f11203,
0xe9d9f806,
0xe0e3fe03,
0xeff3ebde,
0xdef1e8fc,
0xd3e3e8ff,
0x100d0fef,
0x15f8e4e6,
0xf2ffdd00,
0x46160efb,
0x051a161a,
0x13f6f8f8,
0x0807ed04,
0x23fef5ec,
0xef05f20b,
0x0816f6ff,
0xe0f9fcfd,
0x0e30eac3,
0x17f10201,
0x1b211e0a,
0xf9f12909,
0x08fafff2,
0x0024262e,
0xe9cfe0e1,
0xfcdfc51f,
0xe2f9fe10,
0xe3e2c1f1,
0xdaf1ddcf,
0xfcd2d302,
0xfadffffa,
0xe0ec130d,
0xe92116fc,
0x101516f2,
0xeef1e6ee,
0xeae6dc05,
0x1b17fe00,
0x16eedcfc,
0x0add0a10,
0x17000207,
0x061b0800,
0xdff4ec0a,
0x14e8e7d4,
0x04280d0a,
0x0c0be808,
0xf7d5d2e9,
0x04c6f6e5,
0xf500251c,
0xf61a12fb,
0x01e90807,
0xf3350ef3,
0x020a0f10,
0xe103fffd,
0xf0f8fbdf,
0x04ecefdb,
0x030e1cee,
0xf3cbf90e,
0xe3f81f02,
0x11290900,
0x0904e6d5,
0xe8fd1bf7,
0x0bd4dae8,
0xf70f061a,
0x0e1d1c05,
0xe1fad2ca,
0xebe5b8d9,
0x1e050ff3,
0xe6231819,
0x0419cfcc,
0xe7dde4ed,
0xe2d3fff2,
0xdbf9e6d6,
0xfae70ae4,
0xf8f10df2,
0x070b0bef,
0x18fcf510,
0xdbf80c0e,
0xf713f207,
0x1efc0aea,
0xd6f00d0f,
0x202b1bfb,
0xf4f90818,
0x021814f7,
0xfaeb1d1f,
0xeb0d1904,
0xf3ddebec,
0xf4f405f5,
0xff03f4e6,
0xdffd0bfa,
0x122bf5f1,
0xf81727fb,
0x11152a02,
0xf9402202,
0xf3090f0d,
0xf603f6e3,
0xdae7e7e9,
0xf905f5e5,
0x0b1213fb,
0xf2fe07ed,
0x1e0cdfd3,
0x1619f01b,
0x0a08cec1,
0xfcd2caee,
0x0aeff500,
0xedf10b04,
0xe0f8f01f,
0xd1e5ff12,
0xeb0d13f0,
0xfa2a06ee,
0x0e0b0ae6,
0xed0210fe,
0xf3fef8f7,
0x1efe09f8,
0xfef1f3f9,
0x01efeaf8,
0xe8e2f5f2,
0x161e0ffe,
0x091bfd05,
0xfd1cf30f,
0xf7fbf90a,
0x0a160ffb,
0xef05f60f,
0x02271418,
0xed0b09ff,
0x121c17f8,
0xf5f1fdf9,
0xe8e40b1c,
0x010e04fb,
0x1810fefa,
0x03d7032f,
0x1302f90d,
0xf5f2fd22,
0xfdf7e904,
0xfcec06e8,
0xf7f6ebf5,
0x1dfbfe00,
0x280903ff,
0xeb16252f,
0x1517220a,
0xd4071d10,
0xf7ffe9e2,
0x02d707ec,
0xe10202ff,
0x1e1c0e0b,
0x0cedf1e5,
0xefc1e1fc,
0xd0f1f01e,
0xee180908,
0x351af8e2,
0x13230c2e,
0x27062219,
0x0904f820,
0xf1e8f538,
0x070425f2,
0x170e0ae9,
0x0afadde5,
0xf2f20cf1,
0xbc04d9e5,
0xf0e9d7c5,
0x04daf0ef,
0xfc09223f,
0x0dfa2e15,
0xf1191f01,
0x1d01f4fd,
0x2cfdd9c8,
0x19010000,
0x2a1cf916,
0xfa0cfe04,
0xdc110ffd,
0x290307ea,
0x0cfeedf5,
0x24ea0e25,
0xdaf21aff,
0xf001f400,
0x0201fe01,
0xfef7fbfd,
0xfa0002fb,
0xff04fa06,
0x0205f4f9,
0xfcfffaf6,
0xf5f4fff8,
0xf6020402,
0xf9f502fa,
0x01fb0102,
0xff010201,
0x04fef904,
0xfafb00f8,
0x00fdfff9,
0x0204f800,
0x04fb0203,
0xf7f8f904,
0xfdfdf9f6,
0xfd01fb00,
0xfef8fef3,
0xfffcf9fa,
0xfdf3fd01,
0x0104f7fc,
0x03fdf5fa,
0xf9fffa00,
0xfbfb04fd,
0xf9fbfe03,
0xf5fafd01,
0xf6fcf800,
0x010403fe,
0xfef8f703,
0xf9fcfc03,
0xfef10403,
0x00fefbf5,
0xff00fdfe,
0x01f4fef9,
0x01f5f8fe,
0x0004fdf1,
0x0203fc01,
0x01faf802,
0xfefbf803,
0xff00fdfe,
0xf8ffff01,
0xf3fcfefd,
0xf70303fa,
0x0501fff5,
0xfffbfaf9,
0xf7fefdfd,
0x02fbf9fc,
0xfbfff9fd,
0x03fbf9f9,
0xfc04fcff,
0xf4f9f9fa,
0xf9f8f9f7,
0xf2fafefd,
0x0500fafe,
0xf7fcf9f1,
0x0205f702,
0xf9040206,
0x05010501,
0x05fbfbff,
0xfa0306f7,
0xf6fc0501,
0x040102fe,
0xf7fbffff,
0xfbf8ff00,
0x02fbfbfd,
0xf6fcf400,
0x01f9fefc,
0x00f7fbf9,
0xf2f804ff,
0xfa04fdf8,
0xfdfd03f9,
0xfaf905f6,
0x03ff01fa,
0x0302f8f9,
0x0103fef9,
0xfffd02fd,
0x04f600ff,
0xf6fffbfc,
0xfb00f7fa,
0xfaf702fa,
0x00000401,
0xf8fbfefb,
0xf8fc04f2,
0x03f9fffa,
0xf704f801,
0xfefb06f8,
0x01ff0204,
0xfcfff5f0,
0xf6f1f7fd,
0xf3fffcf8,
0xf201f803,
0x00fbf7f2,
0x06f80400,
0xf80003fe,
0xfd04f703,
0xfafcff00,
0x02fd0001,
0xf7f7f705,
0x20fdd90e,
0xe8eef10b,
0x13f80303,
0x0507fc07,
0xff0bf624,
0x1ef3fbf9,
0x0801e9f4,
0xc60f16f2,
0xd8eed7d9,
0xf8ddf9d7,
0x0910f934,
0xf5ef031c,
0xd4f61cf5,
0x0decd0c7,
0x0be40713,
0x012f12ee,
0xfad2e202,
0xcfe906f8,
0xd2ffe4ed,
0x291504ee,
0x18222e24,
0x080e07fe,
0xe4dbd9eb,
0xecf8e8f5,
0xffe5dff5,
0xdbc4a5bf,
0xf70ae121,
0x101512d4,
0x080d23f7,
0x1f2b0f01,
0xf9f800eb,
0x1afde6ea,
0x2801021e,
0xf62bf738,
0xf3e8eb1d,
0xded5cbe4,
0xcdda1ce8,
0xe9f2f3d8,
0x0501f3e0,
0x03f4f101,
0x06111316,
0x0ef7fcfe,
0xf9ec0418,
0xff0003fd,
0x1b021c0d,
0x091f0f12,
0xf8f4e81a,
0xebe4e5de,
0xfcefc8e1,
0xf2eb050f,
0x2d373641,
0x07011d1d,
0x08020725,
0x04e0f9dd,
0xf9dacf06,
0x0109e7fd,
0xfc011c09,
0xf30c1807,
0x1211fe06,
0xfc04050c,
0xfdf81f03,
0xf710fa04,
0x01060def,
0xcf09cdda,
0x12f8f3e5,
0xe9daeddb,
0xfe0a18db,
0x010109fd,
0x270ff304,
0xd4fa1322,
0xfbdbe82d,
0xe50219e2,
0x1a0d14e6,
0xf8e7f912,
0xf2f3171a,
0xe50f1100,
0xfaf21813,
0x10e3f6f7,
0xf2e8e4f9,
0x0beeef24,
0x1aeff0e9,
0xadabd4f9,
0xfe00eed8,
0x18fbe2f1,
0xe9102412,
0x09111002,
0xf7f3e2fa,
0xf1ff0ced,
0x2e1e10fb,
0xceeaee27,
0xfbdc0225,
0xfffa0fe7,
0xf0f8f3f0,
0x00f50405,
0x1e052328,
0xe7183208,
0xd601001f,
0xf0f103d8,
0xfbf3bbf3,
0x04f50e08,
0xfbf800fd,
0xf8e9f002,
0xf0fbfefd,
0xf502e906,
0x01fc0006,
0x0803f9fa,
0xfafcff03,
0xf90304ff,
0xfffcf5f7,
0x060a04fe,
0xf7f5f7f2,
0xf8f9fcf9,
0xfa03ffff,
0x05f901fc,
0xfaff03fa,
0xf901fff3,
0xf4f9efff,
0xfcecf3f9,
0xecfbf6f9,
0xf10b0305,
0x010315f5,
0xfef7edf9,
0xf3fbf804,
0x01e5f201,
0xeaf7ebf9,
0xeefcf6fa,
0x00fd08f0,
0xfafefe03,
0x000907fc,
0x0806f8f8,
0xf6fcfbf9,
0x0400f5f3,
0x06ec0006,
0xf1f5fafa,
0xeeecf1f5,
0xeff3f702,
0xfd0308ec,
0xfe06f5f4,
0x0be9edf8,
0x0608faf9,
0xf9f2f2fa,
0xfffbf7fc,
0xf8fef8fc,
0xf4f300ff,
0xf7fd0904,
0x00f1f8f2,
0xeee8fafe,
0xf9fbeef9,
0x00eefffe,
0xf2f104f9,
0xfa000204,
0xfefaf3f9,
0x09f1fbf6,
0xfbe7ec04,
0xfafaf7fe,
0xf2fef604,
0xfefcfefa,
0xe9f80102,
0xf4f5f1f1,
0xebfafdf3,
0xeefc01f7,
0x0302f400,
0xf5f7f7f3,
0xfcfe03fe,
0xfbe8fe0a,
0xfcfdf7f9,
0xfdedf1ef,
0x00fbfffe,
0xfe00fbfb,
0x00ecfe02,
0xf60afbf8,
0xfff803f0,
0xfdf809ff,
0xf8020103,
0xfdf6f8f9,
0xf6fefa02,
0xf9f3fff8,
0xf3fdf4fb,
0x01f3faed,
0xf60102f0,
0xfaf6f5fa,
0x070407f5,
0xfb04f3ea,
0xf8050000,
0x0bfdfa00,
0x01f9f5f0,
0xfc03f7fd,
0xf1fbf4f7,
0xfaf4f9f8,
0xf6e0f6f2,
0xfff4f8ef,
0xfbf7fefd,
0xfdfa05f6,
0xf800f301,
0x000105fb,
0xf6fd06e8,
0xe1e8f600,
0xf6fce8e9,
0xfff1fefa,
0xf8040101,
0xdfe919fc,
0xf2fffaf2,
0xed0014d7,
0x282ae1f4,
0x210e061e,
0xef052d25,
0x0d1604db,
0x120ff012,
0x0ceafef1,
0xf900fc13,
0x020f01ee,
0xeee4d4e6,
0xe9fb01dc,
0x1bedeaf8,
0xe7e3ff18,
0x081f191a,
0x0bf7fbe5,
0xe4d911f8,
0x20430400,
0xdbccd401,
0xdacff8fb,
0x03131cff,
0x0b2d1424,
0xe50e1e01,
0xcef2f7d4,
0x0311091f,
0xf5eeefc5,
0x1028cd0a,
0x19f1ccd2,
0xfcf5dafc,
0x0c101506,
0xfb0b0903,
0xf4fcf6cb,
0xfaebf612,
0x0c193718,
0x201b04fa,
0xbed3ff12,
0xfbfedaaf,
0xf90a1214,
0xf1ff0502,
0xfbebe8f1,
0x05fbfdf9,
0x050a0b0d,
0x06250ff2,
0xe1cbfed4,
0xee252d0b,
0x06002af7,
0xebf4fb1b,
0xf21b1813,
0xf2d7ecfc,
0xd2dbef03,
0x0d03fbeb,
0xfedc0b05,
0xfd321705,
0x11eedf12,
0xe2f7f908,
0xed03fdd6,
0x01e3eae9,
0x0200e0f5,
0x0bf9faed,
0x0c050c15,
0xf8fd1f16,
0x1e0ef00a,
0x1abc001b,
0xf60e1d11,
0xf31c130d,
0xf1d0ab02,
0xf9ecf8ec,
0xf20dfb02,
0x3f1e070a,
0x101c01ca,
0xe7e9d122,
0xb4e7f803,
0xf9dac7e3,
0x2f1314d5,
0xdc221122,
0x352533e5,
0xf7e6fe0a,
0xeb00ff03,
0xf0e90716,
0xef0b1c20,
0x05f7df00,
0xfb02f1f4,
0xeae1ec00,
0xc9dbdbd8,
0x15fafdfc,
0x08010416,
0x020c553a,
0xd7f802fa,
0x18fef401,
0x2104eee6,
0x08ff0d3d,
0xe3f8ef15,
0xf2d9c2e1,
0xfeece6e2,
0x1211fe06,
0xfa08fd02,
0x0b050317,
0xeefafde8,
0xe0b5e0d5,
0xdaf42019,
0xea0c26e1,
0xd2e6e4ca,
0xe1dae0cd,
0xecc8c5c8,
0xedcfda04,
0x0f030412,
0x12e01efc,
0xf4071812,
0x1cf600fb,
0xff151537,
0x171c03db,
0x1812080c,
0x12ebf109,
0x0cfe0712,
0x100ef8ed,
0x14190f14,
0x0ef0fd23,
0x03f4fe19,
0xe5ebf7f0,
0xd0bfd9f3,
0xf7f5eedc,
0x12ea00f1,
0x14181a04,
0x2516ffe2,
0x10060bfc,
0x03030908,
0x0110dfe8,
0x12f4e10b,
0x110d01fe,
0x05f9fb0a,
0xeaecf0fa,
0xece8061a,
0x0102fad6,
0xeddaebf7,
0xe6f00ff9,
0xe109faf5,
0x05f5e6ec,
0xfa080c0d,
0xfb0314fa,
0xfbfe0805,
0x12ff03ee,
0x08fd11fe,
0x0df7e900,
0x1120f9f7,
0x2919fb06,
0x0b11f6de,
0x0201cdee,
0x24d501f8,
0x1af8fd13,
0xe6f6f4f0,
0xff05ee03,
0xfff3ecdf,
0xe6fafb10,
0x02ea08d7,
0xffedd7f6,
0xfdfcf3fb,
0x1d14fcf9,
0x0ef0f314,
0xece6db02,
0xf1dcf1f8,
0xf4ddf2f0,
0x1dfcf7ed,
0xdf232d1d,
0xf51f07f6,
0xfd152002,
0x0802fdc3,
0xf301c4c3,
0x05ed00ec,
0x11daf70f,
